<pad>	0
<unk>	0
<s>	0
</s>	0
<extra_id_0>	0
<extra_id_1>	0
<extra_id_2>	0
<extra_id_3>	0
<extra_id_4>	0
<extra_id_5>	0
<extra_id_6>	0
<extra_id_7>	0
<extra_id_8>	0
<extra_id_9>	0
<extra_id_10>	0
<extra_id_11>	0
<extra_id_12>	0
<extra_id_13>	0
<extra_id_14>	0
<extra_id_15>	0
<extra_id_16>	0
<extra_id_17>	0
<extra_id_18>	0
<extra_id_19>	0
<extra_id_20>	0
<extra_id_21>	0
<extra_id_22>	0
<extra_id_23>	0
<extra_id_24>	0
<extra_id_25>	0
<extra_id_26>	0
<extra_id_27>	0
<extra_id_28>	0
<extra_id_29>	0
<extra_id_30>	0
<extra_id_31>	0
<extra_id_32>	0
<extra_id_33>	0
<extra_id_34>	0
<extra_id_35>	0
<extra_id_36>	0
<extra_id_37>	0
<extra_id_38>	0
<extra_id_39>	0
<extra_id_40>	0
<extra_id_41>	0
<extra_id_42>	0
<extra_id_43>	0
<extra_id_44>	0
<extra_id_45>	0
<extra_id_46>	0
<extra_id_47>	0
<extra_id_48>	0
<extra_id_49>	0
<extra_id_50>	0
<extra_id_51>	0
<extra_id_52>	0
<extra_id_53>	0
<extra_id_54>	0
<extra_id_55>	0
<extra_id_56>	0
<extra_id_57>	0
<extra_id_58>	0
<extra_id_59>	0
<extra_id_60>	0
<extra_id_61>	0
<extra_id_62>	0
<extra_id_63>	0
<extra_id_64>	0
<extra_id_65>	0
<extra_id_66>	0
<extra_id_67>	0
<extra_id_68>	0
<extra_id_69>	0
<extra_id_70>	0
<extra_id_71>	0
<extra_id_72>	0
<extra_id_73>	0
<extra_id_74>	0
<extra_id_75>	0
<extra_id_76>	0
<extra_id_77>	0
<extra_id_78>	0
<extra_id_79>	0
<extra_id_80>	0
<extra_id_81>	0
<extra_id_82>	0
<extra_id_83>	0
<extra_id_84>	0
<extra_id_85>	0
<extra_id_86>	0
<extra_id_87>	0
<extra_id_88>	0
<extra_id_89>	0
<extra_id_90>	0
<extra_id_91>	0
<extra_id_92>	0
<extra_id_93>	0
<extra_id_94>	0
<extra_id_95>	0
<extra_id_96>	0
<extra_id_97>	0
<extra_id_98>	0
<extra_id_99>	0
.	-2.88088
(	-3.18237
▁	-3.39234
▁}	-3.68635
)	-3.68881
▁{	-3.69934
,	-3.70126
▁=	-3.93669
);	-3.9755
▁(	-4.20458
_	-4.32154
;	-4.35514
▁if	-4.50862
s	-4.70277
▁return	-4.71525
▁new	-4.93448
();	-5.00976
▁null	-5.04235
<	-5.05098
▁public	-5.05283
▁//	-5.12026
get	-5.18173
>	-5.19861
▁"	-5.33587
("	-5.34489
▁+	-5.35715
▁String	-5.35774
()	-5.47484
String	-5.55258
▁==	-5.58869
Exception	-5.72802
▁int	-5.82098
▁final	-5.82547
▁the	-5.8469
().	-5.87672
▁for	-5.89946
▁this	-5.91063
▁void	-5.92751
())	-5.93492
▁!=	-5.95461
:	-6.00153
▁else	-6.03332
i	-6.04971
());	-6.05374
▁i	-6.07079
▁e	-6.09208
");	-6.10407
▁to	-6.10532
▁throw	-6.1062
▁@	-6.11857
(),	-6.12242
▁static	-6.13507
Type	-6.16888
[	-6.17018
",	-6.1773
▁:	-6.31067
Name	-6.31472
▁get	-6.3243
set	-6.34266
▁&&	-6.39407
▁throws	-6.40078
[]	-6.40905
add	-6.42178
▁is	-6.47039
T	-6.47192
length	-6.47441
▁try	-6.48255
▁<	-6.50132
))	-6.51272
Id	-6.53314
List	-6.54605
▁m	-6.54681
▁catch	-6.55179
Override	-6.58522
int	-6.58649
▁a	-6.6009
new	-6.63447
▁boolean	-6.65204
append	-6.65261
));	-6.65333
d	-6.66102
▁result	-6.70516
this	-6.72093
2	-6.74576
▁-	-6.76742
▁List	-6.77171
final	-6.7779
▁value	-6.7797
▁private	-6.78727
m	-6.79285
e	-6.80046
is	-6.80209
▁0;	-6.81288
Request	-6.82454
t	-6.8393
Value	-6.84302
▁Object	-6.85551
▁case	-6.86378
Map	-6.86787
-	-6.87811
ed	-6.90036
'	-6.90157
n	-6.90334
class	-6.90801
ing	-6.91347
▁false	-6.928
Object	-6.95755
||	-6.95958
▁true	-6.97252
Class	-6.97521
▁in	-6.98169
S	-6.98244
▁set	-6.99825
▁*	-7.00627
r	-7.02376
File	-7.03472
x	-7.04782
c	-7.04819
a	-7.05116
/	-7.05293
▁(!	-7.06069
▁0)	-7.06687
]	-7.06939
▁request	-7.06985
name	-7.12205
Data	-7.1221
size	-7.12308
1	-7.12355
equals	-7.12726
▁not	-7.12739
Node	-7.14345
put	-7.16706
▁of	-7.17265
To	-7.18116
otocolMarshaller	-7.18749
Path	-7.1931
toString	-7.1979
Context	-7.20099
Key	-7.20305
▁be	-7.20693
▁name	-7.20815
▁0	-7.21535
Index	-7.22339
Info	-7.2371
▁double	-7.26675
▁?	-7.28576
▁type	-7.28721
value	-7.30716
▁IOException	-7.31619
▁pr	-7.34183
▁long	-7.36547
▁and	-7.37173
▁break	-7.38057
▁key	-7.38581
▁instanceof	-7.3898
▁create	-7.40338
key	-7.4143
▁p	-7.41773
++)	-7.41968
▁c	-7.43144
D	-7.43809
ID	-7.46623
getName	-7.4673
p	-7.46795
▁protected	-7.47935
f	-7.47997
"	-7.48099
g	-7.48185
▁>	-7.49265
Set	-7.49711
type	-7.49999
null	-7.50218
=	-7.5066
b	-7.51986
Builder	-7.52804
er	-7.5316
▁add	-7.53243
▁while	-7.53321
Factory	-7.53486
id	-7.53663
Config	-7.54047
y	-7.54247
▁it	-7.5461
Entry	-7.55137
marshall	-7.55402
3	-7.56372
A	-7.56537
▁file	-7.56938
Element	-7.57728
▁data	-7.57909
rgumentException	-7.58239
")	-7.58247
Message	-7.58303
▁Map	-7.58679
▁response	-7.59108
C	-7.59655
▁IllegalA	-7.59717
>>	-7.60011
▁list	-7.60626
Response	-7.60847
▁we	-7.61064
BINDING	-7.61358
v	-7.62697
▁t	-7.63072
create	-7.6347
o	-7.64123
▁path	-7.64149
▁T	-7.64796
State	-7.65064
▁ArrayList	-7.65275
Result	-7.66284
▁index	-7.66847
Field	-7.67003
Size	-7.67165
Count	-7.6845
▁byte	-7.68546
];	-7.7074
I	-7.70807
L	-7.71553
debug	-7.71631
▁sb	-7.72178
▁b	-7.72975
X	-7.73045
request	-7.74039
▁File	-7.74877
▁with	-7.7525
▁j	-7.75408
Configuration	-7.75415
▁System	-7.75575
▁!	-7.76301
to	-7.76965
▁start	-7.77002
<>(	-7.77181
▁from	-7.77243
Service	-7.77411
▁r	-7.782
Utils	-7.78287
Manager	-7.78459
▁n	-7.785
E	-7.78959
▁log	-7.79077
R	-7.79864
▁out	-7.80134
In	-7.80689
▁Class	-7.81425
▁s	-7.81539
Resource	-7.81636
j	-7.83063
isEmpty	-7.83332
F	-7.83768
▁marshall	-7.84233
Method	-7.84808
▁x	-7.85442
With	-7.85707
Handler	-7.85718
▁context	-7.85794
next	-7.86336
in	-7.86625
Async	-7.86647
▁current	-7.87502
▁node	-7.87727
index	-7.88588
Event	-7.88661
out	-7.89165
able	-7.89227
B	-7.8931
getMessage	-7.90671
▁check	-7.91762
Property	-7.92315
data	-7.92404
From	-7.9267
▁logger	-7.92703
ServiceResponse	-7.94027
For	-7.94289
4	-7.94744
tc	-7.94744
▁on	-7.94841
P	-7.95482
▁field	-7.95636
error	-7.95659
Client	-7.95873
k	-7.96127
Constants	-7.96468
Filter	-7.97508
<?>	-7.97938
▁1	-7.98453
▁1)	-7.98553
Parameter	-7.98899
Group	-7.99888
▁Integer	-8.00022
";	-8.002
▁input	-8.00337
▁StringBuilder	-8.00382
▁method	-8.01146
▁entry	-8.01236
getValue	-8.01516
▁+=	-8.01663
Time	-8.01714
▁I	-8.01745
▁tc	-8.02005
Enabled	-8.02523
Array	-8.02946
remove	-8.0356
▁>=	-8.03611
▁id	-8.03713
Error	-8.04382
▁target	-8.04912
Stream	-8.05872
V	-8.06169
▁message	-8.06917
++	-8.07315
▁buffer	-8.07368
▁end	-8.07383
▁extends	-8.07714
Util	-8.08553
u	-8.08553
▁o	-8.08732
▁super	-8.09468
write	-8.09521
Listener	-8.09848
▁ex	-8.09951
▁read	-8.09994
Item	-8.10139
▁0,	-8.10207
Table	-8.10224
Cache	-8.10247
Impl	-8.10358
▁default	-8.10532
▁'	-8.1062
▁that	-8.10801
true	-8.11051
Properties	-8.1115
file	-8.11513
substring	-8.11898
info	-8.12126
path	-8.12163
▁str	-8.12459
▁->	-8.1269
Text	-8.13113
Status	-8.13263
format	-8.13611
▁/	-8.14296
Page	-8.14653
Integer	-8.14755
K	-8.14805
NAME	-8.14848
log	-8.14905
Model	-8.1516
▁service	-8.15528
▁state	-8.15582
▁f	-8.15589
▁builder	-8.15956
▁Set	-8.1623
▁v	-8.16263
▁max	-8.16388
▁do	-8.16696
Buffer	-8.17401
Level	-8.17408
.");	-8.17545
▁resource	-8.18491
l	-8.1874
▁map	-8.18843
N	-8.18893
Query	-8.19068
▁update	-8.19199
▁&	-8.19248
map	-8.2014
start	-8.20346
println	-8.2082
View	-8.209
▁SdkClient	-8.20997
Length	-8.21038
h	-8.21122
"))	-8.21187
▁source	-8.21315
result	-8.21384
Url	-8.22398
▁synchronized	-8.22588
Connection	-8.22853
▁query	-8.22942
Date	-8.23202
▁1;	-8.23411
▁size	-8.23587
build	-8.23606
w	-8.23669
▁all	-8.23862
G	-8.24026
entry	-8.24105
Attribute	-8.24988
By	-8.2505
Code	-8.25836
Instance	-8.25864
Y	-8.25916
TYPE	-8.2622
And	-8.26369
▁as	-8.26546
[0]	-8.26944
▁first	-8.26986
Token	-8.27685
▁object	-8.27931
▁finally	-8.28043
▁has	-8.28051
▁LOG	-8.28108
Number	-8.28575
Options	-8.29087
▁y	-8.29496
Inner	-8.29499
client	-8.29724
()))	-8.29917
Expression	-8.29955
▁next	-8.30055
close	-8.30297
▁msg	-8.30325
0	-8.30379
Collection	-8.30399
Invalid	-8.30515
▁count	-8.30536
▁java	-8.30644
read	-8.30759
*	-8.308
Callback	-8.31158
al	-8.31546
byte	-8.31567
▁obj	-8.31675
O	-8.31944
Dir	-8.31968
node	-8.32055
▁<=	-8.32479
M	-8.32496
▁write	-8.32546
▁%	-8.3275
contains	-8.32756
()));	-8.32779
){	-8.33021
▁are	-8.33205
input	-8.33317
1,	-8.33401
▁url	-8.34163
▁*/	-8.34522
TracingEnabled	-8.34523
Version	-8.34679
isAny	-8.3481
▁d	-8.35155
▁last	-8.35181
Of	-8.35321
▁ret	-8.35347
Provider	-8.35371
▁|	-8.35612
▁or	-8.36258
<?	-8.36273
on	-8.36365
▁element	-8.36781
▁config	-8.36897
list	-8.37215
▁an	-8.37799
Task	-8.38205
TraceComponent	-8.38652
▁find	-8.3887
current	-8.39492
▁values	-8.40059
Offset	-8.40066
▁offset	-8.40244
IOException	-8.40709
Start	-8.40725
▁parent	-8.41405
util	-8.41409
▁switch	-8.41909
▁Exception	-8.42003
▁parse	-8.42019
Header	-8.42508
Source	-8.42596
User	-8.42742
▁remove	-8.42884
Writer	-8.42909
getClass	-8.4296
Reader	-8.4322
Line	-8.43361
▁Math	-8.43484
▁call	-8.4368
str	-8.43918
Session	-8.43975
▁com	-8.44964
Base	-8.45542
or	-8.45984
Content	-8.4627
▁output	-8.46288
Column	-8.46476
].	-8.46559
URL	-8.46609
▁class	-8.46751
▁/*	-8.4687
▁length	-8.46926
source	-8.4727
Execution	-8.47516
▁float	-8.47551
z	-8.47578
Action	-8.47676
RuntimeException	-8.47764
Rule	-8.4791
Entity	-8.48182
max	-8.48276
Point	-8.48539
isEntry	-8.4867
▁have	-8.48671
▁Observable	-8.48774
H	-8.48783
▁array	-8.48897
long	-8.48935
URI	-8.49051
▁event	-8.49268
java	-8.49375
▁k	-8.49416
▁l	-8.49573
getKey	-8.49741
Job	-8.498
Definition	-8.50103
InputStream	-8.50126
esourceGroupName	-8.50278
Bytes	-8.5031
Unable	-8.50425
Package	-8.50706
▁session	-8.50783
W	-8.50854
▁text	-8.51067
re	-8.5125
Function	-8.51357
U	-8.51453
Position	-8.52344
Mode	-8.52449
▁buf	-8.52696
▁line	-8.53329
▁re	-8.53511
▁no	-8.53792
context	-8.539
▁error	-8.54027
Tree	-8.54177
ly	-8.54242
▁must	-8.54305
▁h	-8.54486
Helper	-8.54682
SuppressWarnings	-8.54926
▁args	-8.55307
Str	-8.5581
Server	-8.56005
service	-8.56012
hasNext	-8.56473
Operation	-8.56602
▁client	-8.56711
▁char	-8.56993
End	-8.57067
Container	-8.57077
▁user	-8.57077
▁params	-8.57223
field	-8.57257
▁V	-8.57505
▁can	-8.57525
Tag	-8.57665
▁row	-8.57846
▁other	-8.57935
Ref	-8.57988
Values	-8.58035
has	-8.58111
▁root	-8.58168
▁argument	-8.58234
Descriptor	-8.58336
Long	-8.58407
▁HashMap	-8.58662
▁cannot	-8.58718
end	-8.58726
min	-8.58845
▁found	-8.5891
Log	-8.591
Bean	-8.59382
from	-8.5939
▁by	-8.59541
▁writer	-8.59733
Location	-8.6003
resource	-8.60418
Pattern	-8.60698
Types	-8.6092
▁continue	-8.61026
valueOf	-8.61031
Registry	-8.61058
Image	-8.6106
▁connection	-8.61172
▁old	-8.61339
▁C	-8.61367
▁filter	-8.61449
stream	-8.61912
▁property	-8.62
(0,	-8.62144
state	-8.6258
Metadata	-8.62591
▁min	-8.62823
On	-8.63095
KEY	-8.63457
▁before	-8.63837
▁Tr	-8.63896
text	-8.64133
of	-8.6415
▁JSON	-8.64587
Iterator	-8.64763
line	-8.65281
Or	-8.65355
Row	-8.65556
Update	-8.65558
Parameters	-8.65611
Component	-8.65718
Address	-8.65841
iterator	-8.65964
Reference	-8.66495
▁val	-8.66632
All	-8.67091
8	-8.67173
▁Long	-8.67329
isDebugEnabled	-8.67591
▁base	-8.67598
System	-8.67912
?	-8.67927
▁Collection	-8.68331
Document	-8.68361
buffer	-8.68514
q	-8.68624
▁content	-8.68725
▁properties	-8.68776
0);	-8.69106
response	-8.69275
ch	-8.6931
▁so	-8.69358
▁len	-8.69671
▁will	-8.69683
Template	-8.6995
Record	-8.70033
getId	-8.70079
\	-8.70097
target	-8.70153
▁required	-8.70166
▁Boolean	-8.70449
▁cache	-8.70473
▁A	-8.70613
▁sub	-8.70619
false	-8.70636
indexOf	-8.708
▁time	-8.71066
Range	-8.71158
Input	-8.7119
pos	-8.71446
▁one	-8.71792
Block	-8.71845
▁clazz	-8.71972
config	-8.72344
▁token	-8.72395
Channel	-8.7253
▁model	-8.7254
▁exception	-8.72596
▁use	-8.72613
64	-8.72627
▁SibTr	-8.72832
body	-8.72871
Param	-8.72879
{	-8.73452
message	-8.73586
▁process	-8.73895
Annotation	-8.7397
url	-8.74114
5	-8.74331
method	-8.74677
▁parameters	-8.74681
No	-8.74768
as	-8.75093
event	-8.75218
+	-8.75273
update	-8.75422
Output	-8.75651
getType	-8.75821
▁pos	-8.75903
Names	-8.7591
▁string	-8.75974
▁delete	-8.76099
Policy	-8.76434
▁item	-8.76551
Parser	-8.76643
es	-8.76883
1.	-8.76943
exit	-8.77004
object	-8.77314
▁w	-8.77417
▁table	-8.77448
▁should	-8.77582
Option	-8.77685
▁If	-8.77963
charAt	-8.78278
▁assert	-8.78661
Target	-8.7868
Double	-8.7874
▁build	-8.78869
Get	-8.78899
Command	-8.78927
Width	-8.79162
▁options	-8.79409
J	-8.79674
▁src	-8.79867
▁num	-8.79874
▁stream	-8.80406
Mapping	-8.80429
with	-8.80576
VALUE	-8.80592
Format	-8.80645
Queue	-8.80818
startsWith	-8.80923
Nullable	-8.80978
▁passed	-8.81044
▁format	-8.81133
▁Cms	-8.81441
▁dest	-8.8167
Char	-8.81691
table	-8.81822
clear	-8.81826
▁instance	-8.81995
warn	-8.82008
▁LOGGER	-8.82076
getInstance	-8.82247
▁code	-8.8225
▁Double	-8.82264
▁E	-8.82319
▁match	-8.82655
▁version	-8.83457
▁S	-8.83564
▁g	-8.83857
Params	-8.84406
parent	-8.84431
offset	-8.84732
addAll	-8.84943
▁at	-8.85081
getProperty	-8.85115
Access	-8.85254
OutputStream	-8.85534
="	-8.86132
Cms	-8.86637
Messages	-8.8674
Call	-8.87038
▁Pr	-8.87051
▁child	-8.87156
Lock	-8.8753
▁IllegalState	-8.87657
group	-8.87699
▁only	-8.87714
unchecked	-8.87784
▁run	-8.87816
The	-8.87895
▁res	-8.88115
values	-8.88376
▁job	-8.88548
▁R	-8.8888
(...)	-8.89081
user	-8.89162
▁task	-8.89317
6	-8.89346
obj	-8.89433
▁column	-8.89552
▁server	-8.89556
(@	-8.8958
Link	-8.89759
As	-8.89767
Boolean	-8.8982
Directory	-8.90064
[1]	-8.90175
filter	-8.90451
▁was	-8.90479
Int	-8.90527
▁image	-8.90626
2,	-8.9069
▁bytes	-8.91212
▁already	-8.91236
count	-8.913
Pos	-8.91791
it	-8.91867
Attributes	-8.92018
query	-8.92033
▁load	-8.92078
Keys	-8.92127
▁-1)	-8.92356
Sub	-8.92453
Fields	-8.92688
Throwable	-8.9322
Wrapper	-8.93559
First	-8.93748
"));	-8.93888
delete	-8.9391
Def	-8.94122
▁handle	-8.94763
Style	-8.94924
▁{}	-8.94932
Label	-8.95079
Failed	-8.95448
▁configuration	-8.96203
▁init	-8.96296
▁un	-8.96595
▁Iterator	-8.97134
trim	-8.97188
▁group	-8.97222
Root	-8.9727
EClass	-8.97282
ED	-8.97383
Json	-8.97501
▁need	-8.98366
Store	-8.98575
▁entity	-8.98645
▁copy	-8.9866
▁local	-8.98677
find	-8.9878
▁reader	-8.98814
Default	-8.99021
Transaction	-8.99168
Prefix	-8.99383
ex	-8.99523
▁header	-8.99546
Read	-9.00211
If	-9.00375
▁Node	-9.00422
double	-9.00758
▁attribute	-9.00971
ation	-9.01002
LA	-9.01145
ll	-9.01355
Application	-9.01632
containsKey	-9.01701
Ids	-9.01717
▁-1;	-9.01845
▁Collections	-9.02281
ion	-9.0236
Uri	-9.02385
at	-9.02386
▁tmp	-9.02446
Schema	-9.02594
parse	-9.02733
▁P	-9.02901
split	-9.02922
com	-9.03253
▁{}",	-9.03335
Calendar	-9.03359
DEFAULT	-9.03433
Color	-9.03606
▁execute	-9.03819
▁but	-9.03832
▁Get	-9.04088
▁date	-9.0414
root	-9.04158
▁uri	-9.04473
Scope	-9.04763
org	-9.04939
▁component	-9.05014
▁listener	-9.05025
equalsIgnoreCase	-9.0503
Thread	-9.05094
msg	-9.05182
INSTANCE	-9.05295
args	-9.05308
Button	-9.05613
▁block	-9.05677
▁Optional	-9.05753
>()	-9.05829
▁sql	-9.05937
▁record	-9.06185
IN	-9.06292
Settings	-9.06408
▁status	-9.06423
Vector	-9.06444
Port	-9.06475
▁Type	-9.06528
▁q	-9.06633
Description	-9.06767
▁arg	-9.06857
At	-9.06919
Interface	-9.06969
Doc	-9.07045
▁number	-9.07512
▁page	-9.07764
element	-9.07872
▁any	-9.07908
2);	-9.07947
▁J	-9.08066
Match	-9.08214
err	-9.0828
2.	-9.08297
New	-9.08303
Adapter	-9.08482
session	-9.08636
un	-9.08667
check	-9.09298
▁Date	-9.09541
entrySet	-9.09672
Resources	-9.09869
code	-9.09899
Z	-9.10409
Files	-9.1078
item	-9.10806
▁'"	-9.11013
▁left	-9.11064
▁json	-9.11086
::	-9.11152
2)	-9.11165
if	-9.11197
Segment	-9.11732
time	-9.1199
Locale	-9.1214
token	-9.12154
▁empty	-9.12241
Order	-9.12257
▁parameter	-9.12388
array	-9.12459
val	-9.12529
trace	-9.12667
last	-9.12897
base	-9.13008
]);	-9.13218
▁view	-9.13294
Local	-9.13352
Future	-9.13404
SIZE	-9.13433
Project	-9.13499
▁2	-9.13616
channel	-9.13846
Len	-9.13982
Next	-9.14037
row	-9.14259
Parent	-9.14354
num	-9.14796
▁param	-9.15031
10	-9.15084
Unit	-9.15102
Check	-9.15117
▁ch	-9.15325
src	-9.15369
▁URL	-9.15378
instance	-9.1541
replace	-9.15538
ERROR	-9.15658
Nonnull	-9.15841
==	-9.15926
ar	-9.15957
Handle	-9.1614
1);	-9.16154
▁point	-9.16363
▁lock	-9.1647
▁The	-9.16494
Converter	-9.16542
▁total	-9.16597
▁X	-9.16692
position	-9.16796
Pool	-9.16977
32	-9.17043
model	-9.17331
Out	-9.1747
Generator	-9.17702
▁tag	-9.17718
▁handler	-9.18062
▁StringBuffer	-9.18195
▁width	-9.18404
Num	-9.18481
▁close	-9.18612
▁then	-9.18629
▁Method	-9.18643
sub	-9.18791
Delete	-9.19039
▁<<	-9.19056
MAX	-9.19231
execute	-9.19254
st	-9.19335
width	-9.19382
ic	-9.19573
▁resources	-9.19617
Consumer	-9.19823
rderByComparator	-9.19914
".	-9.20058
▁++	-9.20199
clazz	-9.20199
Not	-9.20202
▁up	-9.20265
LOG	-9.2035
Re	-9.20414
NonNull	-9.20415
▁callback	-9.20451
%	-9.20461
▁command	-9.20552
Frame	-9.20854
▁right	-9.21136
Bundle	-9.2128
▁action	-9.21291
▁InputStream	-9.21355
Height	-9.21435
init	-9.21493
Part	-9.21895
print	-9.22139
Msg	-9.22231
Obj	-9.22241
▁B	-9.22385
▁info	-9.22449
first	-9.22975
XML	-9.23019
GET	-9.23065
▁HashSet	-9.23276
▁search	-9.23326
▁O	-9.23368
Internal	-9.23444
internal	-9.23552
lang	-9.23571
▁fields	-9.23636
▁1]	-9.23721
lock	-9.23763
▁temp	-9.23815
Control	-9.23946
Un	-9.2395
▁position	-9.23953
▁now	-9.24162
getString	-9.24196
Stack	-9.24317
char	-9.24369
").	-9.24376
▁Thread	-9.24625
an	-9.24807
no	-9.24817
ClassName	-9.24971
Identifier	-9.25241
▁there	-9.25299
Xml	-9.25436
buf	-9.25466
Elements	-9.25523
▁rule	-9.25703
▁xml	-9.25866
Chain	-9.26046
DB	-9.26103
▁when	-9.26262
do	-9.26288
▁N	-9.26341
property	-9.2664
▁ref	-9.26652
7	-9.2671
SQL	-9.26868
Spec	-9.27059
http	-9.27073
("\	-9.27174
▁register	-9.27254
▁channel	-9.27397
▁locale	-9.27448
▁does	-9.27484
▁1,	-9.27498
Statement	-9.27502
Math	-9.27518
▁H	-9.27562
Var	-9.27805
Proxy	-9.27841
Processor	-9.27843
\\	-9.28007
Interval	-9.28274
exists	-9.28283
Val	-9.2847
▁generate	-9.28862
▁This	-9.2891
Write	-9.28961
Timeout	-9.28965
matcher	-9.28979
string	-9.29089
default	-9.29202
len	-9.29292
tag	-9.29592
▁pattern	-9.29642
▁order	-9.30125
Notification	-9.3026
server	-9.30398
Module	-9.30466
ING	-9.30484
Executor	-9.3059
▁height	-9.30672
Certificate	-9.30746
▁db	-9.30751
Hash	-9.3084
Extension	-9.31029
builder	-9.31091
load	-9.31093
▁send	-9.31154
Logger	-9.31261
sql	-9.31319
▁req	-9.31326
▁container	-9.31327
▁make	-9.3138
Variable	-9.31572
Matrix	-9.31661
Host	-9.3171
Create	-9.3175
▁thread	-9.32028
!	-9.32081
Feature	-9.32293
job	-9.32362
json	-9.324
param	-9.32429
(!	-9.32486
register	-9.32712
Enum	-9.32781
logger	-9.32955
Headers	-9.32994
ClassLoader	-9.33168
▁validate	-9.33287
open	-9.33343
▁Func	-9.33615
ArrayList	-9.33694
Change	-9.337
ER	-9.33766
task	-9.33798
▁convert	-9.33819
old	-9.34055
▁prefix	-9.34168
RE	-9.34247
▁D	-9.34257
Summary	-9.34286
++]	-9.34758
Void	-9.34851
11	-9.34883
entity	-9.3496
other	-9.35044
cache	-9.35139
Search	-9.35337
date	-9.35338
properties	-9.35371
Last	-9.35508
▁4	-9.35621
▁after	-9.35721
sRequest	-9.35894
Character	-9.35923
▁been	-9.35999
▁props	-9.36138
Tags	-9.36225
content	-9.36311
connection	-9.36399
invoke	-9.36541
▁"'	-9.36569
float	-9.36652
Child	-9.36683
▁2)	-9.36755
1<	-9.37038
resources	-9.37054
Body	-9.37402
NO	-9.3752
Null	-9.37523
output	-9.3754
▁non	-9.37572
▁hash	-9.37636
▁host	-9.37642
status	-9.37705
00	-9.37773
xml	-9.37952
Args	-9.38099
newInstance	-9.38164
Folder	-9.38197
▁which	-9.38245
Repository	-9.38309
▁document	-9.384
Idx	-9.38431
Endpoint	-9.3847
App	-9.38494
Byte	-9.38748
pli	-9.38772
Max	-9.38834
Sequence	-9.38846
Panel	-9.39213
Process	-9.39265
▁Element	-9.3943
▁"+	-9.39541
ele	-9.39618
Resolver	-9.39665
▁""	-9.39735
▁annotation	-9.39779
▁label	-9.39819
▁attributes	-9.39956
en	-9.39998
FILE	-9.40008
Form	-9.40442
getPath	-9.40479
Counter	-9.40577
▁We	-9.40705
StringUtils	-9.40717
uri	-9.40759
Device	-9.40823
boolean	-9.40999
▁function	-9.41121
Destination	-9.41292
NotNull	-9.41294
▁resolve	-9.41312
▁col	-9.41515
Http	-9.4159
Entries	-9.41756
Stats	-9.4195
▁"/	-9.42149
▁Arrays	-9.42164
UTF	-9.42243
idx	-9.42251
Argument	-9.42496
▁Create	-9.4251
exception	-9.42542
Mapper	-9.4261
notNull	-9.42815
toArray	-9.42989
db	-9.43023
NOT	-9.43038
rs	-9.43135
image	-9.43223
▁template	-9.43254
Api	-9.43319
Member	-9.43351
column	-9.43573
▁valid	-9.43584
Graph	-9.43627
validate	-9.43797
▁results	-9.43889
ur	-9.43963
▁-1	-9.43985
api	-9.44077
▁Check	-9.44101
=0;	-9.44118
matches	-9.4414
▁conn	-9.44148
▁Abstract	-9.44266
Pair	-9.4427
(1);	-9.44428
▁destination	-9.44606
▁L	-9.45089
▁files	-9.4511
ref	-9.4524
▁TODO	-9.45265
Nodes	-9.45544
Engine	-9.45603
record	-9.45692
▁resp	-9.45738
Cluster	-9.45749
keySet	-9.45814
Role	-9.45817
!"	-9.45831
Limit	-9.45868
▁directory	-9.45869
printStackTrace	-9.45879
NON	-9.45916
ent	-9.45999
Classes	-9.46568
Strategy	-9.46637
getParent	-9.4665
Edge	-9.46711
Copy	-9.46736
▁DB	-9.46756
▁ignore	-9.46914
bPackage	-9.46941
action	-9.47004
page	-9.47055
▁defaultValue	-9.47255
version	-9.47347
▁limit	-9.47352
Current	-9.47568
▁scope	-9.47719
child	-9.47794
Layout	-9.47798
Java	-9.478
▁port	-9.47815
Cannot	-9.47956
▁z	-9.47981
Batch	-9.48188
▁ServiceFuture	-9.4825
▁ctx	-9.48326
arg	-9.48409
bytes	-9.48558
Dialog	-9.48578
▁same	-9.48589
▁iter	-9.48653
urrentTimeMillis	-9.48667
▁stop	-9.48832
process	-9.48918
▁address	-9.49085
1)	-9.49091
Password	-9.49178
▁Point	-9.49201
▁SQLException	-9.49385
/{	-9.49387
▁factory	-9.49605
▁Log	-9.49622
▁may	-9.49708
▁store	-9.49792
view	-9.49845
Script	-9.49865
▁option	-9.49947
12	-9.49968
label	-9.49996
google	-9.50066
getAttribute	-9.50078
▁keys	-9.50219
Optional	-9.50262
ip	-9.50379
▁G	-9.50382
▁Response	-9.50626
▁queue	-9.50628
res	-9.50643
▁future	-9.50644
▁than	-9.50711
Report	-9.5103
Meta	-9.51108
▁provider	-9.5111
[2]	-9.51112
▁put	-9.51124
▁bundle	-9.51267
▁failed	-9.51332
▁Path	-9.51437
▁don	-9.51515
Is	-9.51556
Desc	-9.51595
Environment	-9.51597
▁original	-9.51603
all	-9.5163
▁expected	-9.51685
▁org	-9.5178
binding	-9.52042
▁Af	-9.5211
!=	-9.52114
apply	-9.52234
▁iterator	-9.52341
▁ByteArray	-9.52543
UUID	-9.52649
amazonaws	-9.52666
▁bean	-9.5267
▁className	-9.52697
empty	-9.52713
\"	-9.52728
▁app	-9.52866
left	-9.52885
Bounds	-9.52931
Listeners	-9.53391
header	-9.53548
arraycopy	-9.5356
host	-9.53583
Step	-9.53625
Condition	-9.53649
call	-9.53662
▁doc	-9.5379
▁Vector	-9.53906
TIME	-9.53971
▁here	-9.53993
op	-9.54007
failed	-9.54048
▁expression	-9.54048
Network	-9.54094
Activity	-9.54103
up	-9.54124
Database	-9.54377
Matcher	-9.54389
Left	-9.54432
featureID	-9.54529
le	-9.54603
Select	-9.54737
▁Field	-9.54799
▁timeout	-9.54955
Flow	-9.55021
▁methodName	-9.55044
▁used	-9.55074
Namespace	-9.55209
Details	-9.55298
Auth	-9.55324
:"	-9.55648
Add	-9.55683
After	-9.55791
▁reference	-9.5582
el	-9.55881
prefix	-9.55913
▁elements	-9.55924
▁just	-9.55977
▁0.0	-9.55987
toLowerCase	-9.56024
sort	-9.56322
▁schema	-9.56416
component	-9.56616
▁operation	-9.56671
▁dir	-9.56681
local	-9.56931
Window	-9.57017
parseInt	-9.57029
Symbol	-9.57108
endsWith	-9.5717
container	-9.57205
▁into	-9.57251
_0	-9.57264
▁idx	-9.57321
asList	-9.57475
)));	-9.57591
▁cluster	-9.57658
getSimpleName	-9.57664
VERSION	-9.57847
iv	-9.57923
Sql	-9.58166
▁tree	-9.58184
link	-9.58423
Encoding	-9.58532
Op	-9.58609
Word	-9.58682
▁URI	-9.58735
▁cause	-9.58764
▁"/"	-9.58929
0,	-9.58939
SdkInternal	-9.59011
▁test	-9.59029
▁application	-9.59187
▁project	-9.59422
://	-9.59506
+"	-9.59538
][	-9.59597
Results	-9.59637
height	-9.59726
▁fileName	-9.60152
Post	-9.60247
▁K	-9.60287
--;	-9.60289
Distance	-9.60355
TAG	-9.60368
Loader	-9.60447
▁because	-9.60465
▁Function	-9.60741
getField	-9.60761
▁location	-9.60873
dir	-9.6096
Holder	-9.61055
qPath	-9.61061
▁serviceName	-9.61099
Region	-9.61297
block	-9.61301
20	-9.61461
Failure	-9.61529
isAssignableFrom	-9.61857
TO	-9.61897
▁more	-9.61958
Missing	-9.62107
Abstract	-9.62189
▁Throwable	-9.62354
STRING	-9.62586
JSON	-9.62623
Identity	-9.62626
Blocking	-9.62633
▁level	-9.62683
Menu	-9.62706
Metric	-9.62717
Groups	-9.62822
▁body	-9.62862
▁statement	-9.63
PROPERTY	-9.63067
▁pre	-9.63113
ms	-9.6314
av	-9.63217
Permission	-9.63245
net	-9.63458
▁matcher	-9.63492
$	-9.63524
Ifc	-9.63656
▁skip	-9.63766
right	-9.6378
nitro	-9.63801
NLS	-9.63825
Selector	-9.63846
▁parser	-9.63899
Controller	-9.64169
ALL	-9.64244
Arg	-9.64328
▁print	-9.64478
▁style	-9.64478
Cell	-9.64569
▁range	-9.64789
▁previous	-9.64818
▁password	-9.65
▁Resource	-9.65215
▁Page	-9.65265
▁link	-9.65286
▁M	-9.6529
▁compute	-9.65329
Snapshot	-9.65387
16	-9.65461
th	-9.65489
handle	-9.65644
Space	-9.65649
us	-9.65734
▁existing	-9.65734
the	-9.65762
▁open	-9.65762
▁remote	-9.6577
▁each	-9.65995
Pre	-9.66078
Memory	-9.66115
▁change	-9.66194
MetaData	-9.66355
▁collection	-9.66383
▁NoSuch	-9.66459
Load	-9.6653
▁split	-9.66706
tree	-9.66849
Serializer	-9.6689
▁report	-9.66953
Security	-9.67039
Algorithm	-9.67297
policy	-9.67323
(1)	-9.67407
Case	-9.67475
getE	-9.67488
▁F	-9.67616
Only	-9.67629
▁ele	-9.67668
▁u	-9.67794
io	-9.6787
ad	-9.67883
▁trace	-9.67888
▁Default	-9.68072
requireNonNull	-9.68107
run	-9.68175
▁prev	-9.68247
Html	-9.68264
return	-9.6835
▁Query	-9.68414
▁transaction	-9.68528
▁second	-9.68529
limit	-9.68597
▁frame	-9.6883
▁select	-9.6886
Close	-9.68902
Predicate	-9.68929
Attr	-9.69057
▁extract	-9.69267
Protocol	-9.69294
Web	-9.69421
Items	-9.69425
(0)	-9.69429
cms	-9.69556
Vertex	-9.69567
Non	-9.69643
Could	-9.69712
▁rs	-9.69728
SET	-9.69882
Required	-9.70146
CLASS	-9.70185
▁insert	-9.70212
Operator	-9.70356
point	-9.70385
PREFIX	-9.70398
options	-9.70422
▁description	-9.70507
}	-9.70561
Binding	-9.70611
▁apply	-9.70694
getMax	-9.70747
▁segment	-9.70804
▁metadata	-9.70899
Validation	-9.70962
IS	-9.70977
Tokens	-9.71054
Timestamp	-9.7113
attr	-9.71155
Usage	-9.7116
▁//$	-9.7129
configuration	-9.71332
sb	-9.71346
os	-9.71457
▁back	-9.71471
reference	-9.71538
params	-9.71558
Remote	-9.71628
Before	-9.71713
▁begin	-9.71834
▁mapping	-9.71847
<?>>	-9.71863
Constant	-9.71865
attribute	-9.71874
POST	-9.72123
DATA	-9.72362
▁save	-9.72414
FIELD	-9.7242
Db	-9.7252
encode	-9.72611
Columns	-9.72714
getBytes	-9.72804
className	-9.72855
▁stack	-9.72992
NotFound	-9.73012
Account	-9.73058
▁encoding	-9.73101
Storage	-9.73271
writer	-9.73322
req	-9.73499
One	-9.73568
ap	-9.7361
▁work	-9.73619
▁ID	-9.73787
Comment	-9.73833
Expr	-9.73845
Metrics	-9.73857
col	-9.73962
generate	-9.73983
▁database	-9.7403
copy	-9.74049
18	-9.74256
▁attr	-9.74286
▁Message	-9.74459
▁transform	-9.74581
Custom	-9.74586
▁loop	-9.74593
forEach	-9.74748
▁Json	-9.74748
▁entries	-9.75213
Work	-9.75213
FileName	-9.75337
OF	-9.75396
▁names	-9.75417
Icon	-9.75425
▁push	-9.75618
for	-9.75781
single	-9.75787
▁module	-9.75987
and	-9.75997
FOLLOW	-9.76056
address	-9.76076
START	-9.76087
▁8	-9.76087
Right	-9.76118
Flag	-9.76273
Box	-9.76604
DateTime	-9.76698
setProperty	-9.76717
▁extension	-9.76747
▁using	-9.76844
Changed	-9.76861
▁cl	-9.76871
▁scale	-9.76887
port	-9.7691
Domain	-9.76927
Constructor	-9.76958
namespace	-9.77014
im	-9.77033
▁arguments	-9.77145
▁access	-9.77149
compareTo	-9.77233
▁W	-9.77264
▁merge	-9.77294
▁feature	-9.77407
▁types	-9.77421
▁post	-9.77443
Kind	-9.77462
Bits	-9.77821
API	-9.77836
Test	-9.77882
>>>	-9.77899
getTime	-9.77978
[]{	-9.77981
Q	-9.78005
ment	-9.78033
▁distance	-9.78057
▁de	-9.78088
▁DEFAULT	-9.78142
':	-9.78299
convert	-9.78349
Tuple	-9.78412
▁Base	-9.78483
box	-9.78571
▁headers	-9.78605
▁replace	-9.78609
▁stmt	-9.78653
▁Calendar	-9.78676
select	-9.78787
Capacity	-9.7879
-1$	-9.78875
main	-9.78924
Subscription	-9.78968
▁mode	-9.78982
▁http	-9.79043
Import	-9.79083
▁initialize	-9.79386
▁reset	-9.79401
Scale	-9.79513
transform	-9.79516
▁short	-9.79604
bean	-9.79605
ec	-9.79607
PATH	-9.79612
Topic	-9.79734
Score	-9.79838
▁Stream	-9.79953
▁counter	-9.80018
▁ByteBuffer	-9.80071
accept	-9.80195
Empty	-9.80326
▁HttpServlet	-9.8045
Col	-9.80545
▁Preconditions	-9.80598
Global	-9.80678
order	-9.80824
▁["	-9.80958
▁actual	-9.81143
▁available	-9.81172
getAbsolutePath	-9.81188
Formatter	-9.81257
Profile	-9.81349
▁Add	-9.81464
use	-9.81505
▁cmd	-9.81506
am	-9.81579
Atom	-9.81777
ByteBuffer	-9.81791
▁prop	-9.81842
▁top	-9.82022
active	-9.8206
▁alt	-9.82063
Information	-9.82064
Category	-9.82077
▁Request	-9.82286
▁Http	-9.82407
▁items	-9.82635
TABLE	-9.82813
getCurrent	-9.82872
MIN	-9.82923
Open	-9.83012
Term	-9.83022
Selection	-9.83023
▁sure	-9.83061
Run	-9.83073
Relation	-9.83135
collect	-9.83153
Layer	-9.83161
OK	-9.83171
▁formatter	-9.83181
▁clear	-9.83187
project	-9.83188
Interrupted	-9.83243
DATE	-9.83255
form	-9.83318
▁JSONObject	-9.83327
▁random	-9.83387
▁show	-9.83643
▁No	-9.83705
[])	-9.83752
▁exist	-9.83777
Product	-9.83783
Float	-9.83785
getData	-9.83928
Authentication	-9.83991
Bucket	-9.84045
stop	-9.84065
▁include	-9.84117
Multi	-9.84177
▁conf	-9.84284
match	-9.84292
Ex	-9.84311
Area	-9.84485
Partition	-9.84571
Transport	-9.84601
▁off	-9.84678
Fragment	-9.84744
iter	-9.84754
Methods	-9.84765
Min	-9.84781
This	-9.84789
▁step	-9.84872
Arrays	-9.84914
Declaration	-9.84978
▁Iterable	-9.84986
▁2;	-9.85186
est	-9.85283
Build	-9.85401
ToString	-9.8543
▁unit	-9.85433
OR	-9.85496
▁cms	-9.85528
USER	-9.85559
application	-9.8573
▁raw	-9.85744
listener	-9.85746
History	-9.85821
de	-9.85859
Transform	-9.85862
commerce	-9.86062
▁atom	-9.86267
number	-9.86339
ff	-9.86353
ol	-9.86404
INT	-9.86452
▁columns	-9.86502
Recognition	-9.86576
▁children	-9.86751
Principal	-9.86836
app	-9.86943
replaceAll	-9.86948
eNS	-9.86955
flush	-9.86969
getDefault	-9.86979
Up	-9.87249
}/	-9.87257
▁nodes	-9.87309
▁mapper	-9.87367
Sync	-9.87522
▁cell	-9.87547
EPackage	-9.87565
Duration	-9.87709
getX	-9.87739
▁chain	-9.87817
▁payload	-9.87908
▁html	-9.87917
LENGTH	-9.88129
▁>>	-9.88192
----------------	-9.88368
▁XML	-9.88427
Signature	-9.88437
▁namespace	-9.88456
Site	-9.88489
▁could	-9.88494
▁since	-9.8851
cs	-9.88568
fs	-9.8862
report	-9.88646
▁Properties	-9.88681
Widget	-9.88752
Delegate	-9.88757
▁Simple	-9.88764
Plugin	-9.88801
join	-9.889
Stop	-9.88902
Rules	-9.8893
level	-9.8894
▁retval	-9.89003
Specification	-9.89051
TOKEN	-9.89073
▁ns	-9.89146
insert	-9.89259
conf	-9.89395
▁StringUtils	-9.89568
Variables	-9.89572
doc	-9.89603
Props	-9.89679
▁allow	-9.89692
Route	-9.89705
▁Character	-9.89709
annotation	-9.89809
unlock	-9.89845
])	-9.89886
Found	-9.90007
Credentials	-9.90146
pattern	-9.90251
send	-9.90257
Unknown	-9.90338
Direction	-9.90353
Co	-9.90355
▁my	-9.90358
▁main	-9.90468
▁TimeUnit	-9.90492
▁system	-9.90572
xFF	-9.90618
Factor	-9.90628
tr	-9.90631
▁Invalid	-9.90636
throw	-9.90638
store	-9.90684
▁ensure	-9.90703
Period	-9.90774
document	-9.90898
getEPackage	-9.90948
word	-9.90949
Deprecated	-9.90987
9	-9.90989
▁where	-9.91186
Support	-9.912
UN	-9.91229
-1	-9.91281
Section	-9.9131
▁done	-9.91364
▁chunk	-9.91556
▁U	-9.91568
validator	-9.91588
ctx	-9.91605
▁encode	-9.917
Res	-9.91778
Classifiers	-9.92029
▁script	-9.92114
▁CmsResource	-9.92119
▁DateTime	-9.92228
▁active	-9.9226
▁sort	-9.92311
Day	-9.92373
SQLException	-9.92541
▁NullPointer	-9.92701
reset	-9.92915
getAnnotation	-9.92923
search	-9.9293
END	-9.92935
▁methods	-9.92962
newBuilder	-9.92972
Geometry	-9.93121
Shape	-9.93131
getResource	-9.93136
▁1.0	-9.93207
EMPTY	-9.93275
NULL	-9.93281
▁member	-9.93312
▁Repository	-9.93318
te	-9.93356
▁device	-9.93513
Core	-9.93644
▁Annotation	-9.93658
var	-9.93891
ResponseBody	-9.94041
▁append	-9.94056
Tile	-9.94136
▁word	-9.94224
Buf	-9.94448
Remove	-9.94448
▁variable	-9.94463
hash	-9.94463
▁tokens	-9.94465
HttpRequest	-9.94558
▁cur	-9.94583
Simple	-9.94619
▁op	-9.94722
▁Locale	-9.94737
Conf	-9.94936
IO	-9.94958
LOGGER	-9.94992
nextPageLink	-9.94992
▁compare	-9.95053
▁pool	-9.95188
▁groupId	-9.95196
01	-9.95217
▁render	-9.9524
▁invoke	-9.9536
ON	-9.95418
▁constructor	-9.95424
parameter	-9.95429
▁env	-9.95532
reader	-9.95579
sTo	-9.95594
▁proxy	-9.95601
schema	-9.95679
tmp	-9.95819
Transition	-9.95878
location	-9.95904
▁specified	-9.9594
Annotations	-9.96027
Title	-9.96072
▁Image	-9.96085
CODE	-9.96209
▁partition	-9.9626
Trigger	-9.96304
abs	-9.96355
setValue	-9.96542
Chunk	-9.96595
▁loader	-9.96595
▁Content	-9.96632
command	-9.96714
("/	-9.96925
locale	-9.97005
▁dst	-9.97069
Binary	-9.97201
Cursor	-9.97301
▁part	-9.97303
De	-9.97335
Media	-9.97336
▁BigDecimal	-9.97448
▁best	-9.97485
resolve	-9.9753
Socket	-9.97568
Prop	-9.976
types	-9.97624
COLUMN	-9.97645
getRequest	-9.97676
ts	-9.97819
▁color	-9.97823
▁batch	-9.97924
Alias	-9.97967
▁descriptor	-9.97989
▁OutputStream	-9.98041
ate	-9.98073
ul	-9.98076
▁cursor	-9.98097
Rate	-9.98109
head	-9.98209
Registration	-9.9828
LIST	-9.98337
22	-9.98434
▁arr	-9.98449
Be	-9.98486
Return	-9.98592
ids	-9.98618
off	-9.98647
Archive	-9.98678
con	-9.98801
ant	-9.98861
title	-9.98865
Validator	-9.98878
13	-9.98892
lastIndexOf	-9.99031
▁tile	-9.99055
getText	-9.99068
▁sequence	-9.99132
Screen	-9.99289
Driver	-9.99296
▁exec	-9.99342
Iter	-9.99356
cp	-9.99383
#	-9.99391
▁Value	-9.99423
▁fieldName	-9.99427
▁self	-9.99441
expression	-9.99605
▁Property	-9.99726
Attachment	-9.99773
▁Document	-9.99795
cluster	-9.99828
SI	-9.99906
DataSource	-9.99914
▁newValue	-9.99914
Progress	-9.99923
▁plugin	-9.99935
rule	-10.0002
cl	-10.0004
Points	-10.0008
getNext	-10.0009
Detail	-10.0014
Runtime	-10.0023
REQUEST	-10.0044
▁JAXBElement	-10.0044
▁exists	-10.0045
▁Expression	-10.0047
▁Token	-10.0047
Payload	-10.0053
▁sum	-10.0057
scope	-10.0069
HTTP	-10.0071
Millis	-10.0073
▁con	-10.008
▁decode	-10.0084
▁Update	-10.0111
▁Interrupted	-10.0116
ive	-10.0121
▁Connection	-10.0124
Per	-10.0127
▁ClassLoader	-10.0127
Insert	-10.0149
▁created	-10.0162
post	-10.0169
Dependency	-10.0176
MESSAGE	-10.0177
▁classes	-10.0178
[][]	-10.0182
▁selected	-10.0185
INFO	-10.0194
▁title	-10.0196
▁meta	-10.0201
▁fs	-10.0215
Language	-10.0227
Instances	-10.0227
▁Job	-10.0233
Join	-10.0234
▁supported	-10.0237
getParameter	-10.0239
▁Constants	-10.0249
▁?>	-10.0252
uuid	-10.0256
Authorization	-10.0258
▁3	-10.0266
Display	-10.0269
Processing	-10.0269
▁registry	-10.0269
li	-10.027
Children	-10.0276
▁charset	-10.0276
▁condition	-10.0278
▁Number	-10.028
decode	-10.029
()];	-10.0297
Arguments	-10.0326
//	-10.0328
setAttribute	-10.0331
▁LinkedList	-10.0331
Sign	-10.0336
▁auth	-10.0338
▁Matrix	-10.0343
▁>>>	-10.0359
ce	-10.0374
Short	-10.038
xff	-10.0381
unit	-10.0381
});	-10.0383
ns	-10.0384
Worker	-10.0404
make	-10.0406
forName	-10.0408
▁our	-10.041
▁var	-10.0424
not	-10.043
member	-10.0433
Split	-10.0441
timeout	-10.0453
ity	-10.0466
ac	-10.0472
▁'\	-10.0477
▁storage	-10.0478
Con	-10.0482
ve	-10.0482
Monitor	-10.0485
password	-10.0521
td	-10.0526
Invocation	-10.0529
Managed	-10.0539
▁cached	-10.0545
Plan	-10.0546
getWidth	-10.0552
Pipeline	-10.0554
▁st	-10.0554
Constraint	-10.0558
▁Assert	-10.0565
▁"\"	-10.0565
intValue	-10.0566
▁over	-10.0578
▁added	-10.0578
Collector	-10.0579
▁folder	-10.0583
▁tx	-10.06
[]>	-10.06
Events	-10.0602
▁filename	-10.0602
MAP	-10.0608
EL	-10.0615
Criteria	-10.0619
rows	-10.0624
READ	-10.0624
handler	-10.0624
▁executor	-10.0625
▁join	-10.0628
Iterable	-10.0638
jcasType	-10.0645
Init	-10.0649
Edit	-10.0652
▁MAX	-10.066
getY	-10.0666
External	-10.0676
operation	-10.0698
script	-10.0699
Editor	-10.0705
14	-10.0709
Background	-10.0718
▁os	-10.0723
▁given	-10.0732
▁initial	-10.0737
getMethod	-10.0746
NONE	-10.0752
▁visit	-10.0764
▁convertTo	-10.0775
ELEMENT	-10.0778
Valid	-10.078
FilePath	-10.0787
▁interval	-10.0788
queue	-10.079
Single	-10.0796
fill	-10.08
PARAM	-10.0807
▁Entity	-10.0811
dest	-10.0833
▁possible	-10.0836
▁consumer	-10.0838
▁internal	-10.0841
IP	-10.0843
Cookie	-10.0848
▁tags	-10.0849
▁single	-10.0852
▁Config	-10.0853
one	-10.0864
ompletableFuture	-10.0866
getNum	-10.0868
Span	-10.0871
▁bit	-10.0872
Can	-10.0872
clone	-10.0874
serviceName	-10.0875
getNode	-10.0875
AL	-10.0882
▁listeners	-10.0882
Artifact	-10.0882
▁View	-10.0886
Paths	-10.0886
Available	-10.0891
CACHE	-10.0893
▁want	-10.0895
Parts	-10.0903
▁calculate	-10.0909
StringUtil	-10.091
>>()	-10.0927
scale	-10.0931
Bit	-10.0935
Visible	-10.0946
Sample	-10.0951
Agent	-10.0961
getInt	-10.0967
▁rows	-10.0968
▁Java	-10.0979
setName	-10.0984
RequestContext	-10.0992
ag	-10.0996
parser	-10.1
▁Data	-10.1002
ies	-10.1002
Describe	-10.1013
▁its	-10.1021
compare	-10.1025
IF	-10.1034
],	-10.106
▁Pattern	-10.107
short	-10.1072
resp	-10.1085
HEADER	-10.1088
Cert	-10.1088
▁cls	-10.1088
▁delta	-10.109
▁iv	-10.1094
Weight	-10.1106
html	-10.1113
getContext	-10.1114
ret	-10.1124
▁Operation	-10.1126
Flags	-10.1132
ps	-10.1136
--	-10.1142
HttpServlet	-10.1147
mode	-10.1152
Zone	-10.1158
▁control	-10.1166
Packet	-10.1166
em	-10.1171
Sort	-10.1175
EN	-10.1181
Common	-10.1193
DAY	-10.1198
▁cal	-10.1198
pe	-10.1201
NODE	-10.1206
Mask	-10.121
▁form	-10.1221
▁tr	-10.1223
▁[{}]	-10.1232
|	-10.1239
▁Attribute	-10.124
Follow	-10.1246
Deployment	-10.1246
▁topic	-10.125
temp	-10.125
▁Task	-10.1258
21	-10.1272
getUser	-10.128
Structure	-10.1283
axis	-10.1284
Tab	-10.1295
▁graph	-10.1308
▁Configuration	-10.1308
▁verify	-10.1309
▁character	-10.1314
▁...	-10.1322
▁window	-10.1323
Master	-10.1327
▁endpoint	-10.1331
Trace	-10.1337
Statistics	-10.1341
sFor	-10.1346
▁happen	-10.136
▁some	-10.1366
sum	-10.1376
currentThread	-10.1378
subscriptionId	-10.1388
<?,	-10.1392
template	-10.1395
me	-10.1401
▁"\	-10.1402
segment	-10.1405
atom	-10.1405
▁User	-10.141
GROUP	-10.1438
Stage	-10.1448
Owner	-10.1453
Servlet	-10.1457
▁multi	-10.146
Separator	-10.1471
▁Matcher	-10.1477
▁edge	-10.1484
ROOT	-10.1488
Assignment	-10.1488
▁through	-10.149
getLength	-10.1494
Slot	-10.1495
ws	-10.1497
▁domain	-10.1507
MODE	-10.152
Pass	-10.1538
Upload	-10.1539
Schedule	-10.1544
DataType	-10.1558
toUpperCase	-10.157
Diff	-10.1578
isDirectory	-10.1587
▁Re	-10.159
EventListener	-10.1591
Comparator	-10.1592
▁trigger	-10.1596
pre	-10.1598
describe	-10.1602
getAll	-10.1604
▁full	-10.1609
▁Table	-10.1611
begin	-10.1612
Expected	-10.1613
Setting	-10.1613
total	-10.1614
global	-10.1615
Complete	-10.1636
|=	-10.164
cm	-10.1641
Native	-10.1643
rec	-10.1643
▁two	-10.1647
▁2);	-10.1648
test	-10.1651
cause	-10.1652
separator	-10.1656
function	-10.1657
merge	-10.1657
EDEFAULT	-10.1666
il	-10.1669
cur	-10.1674
complete	-10.1688
RESOURCE	-10.169
metadata	-10.1704
gen	-10.1704
style	-10.1707
▁package	-10.1707
▁propertyName	-10.1715
▁Runnable	-10.1717
Renderer	-10.1718
getObject	-10.1719
▁contains	-10.1721
='	-10.1726
▁changed	-10.1728
509	-10.174
▁Internal	-10.1741
Association	-10.1756
▁duration	-10.1762
meta	-10.177
▁nextPageLink	-10.1771
▁Key	-10.1774
▁fire	-10.1776
push	-10.1776
▁Server	-10.1778
Axis	-10.1779
▁parts	-10.1784
include	-10.1784
env	-10.1786
Expressions	-10.1794
▁checkNotNull	-10.1794
▁notify	-10.1796
Raw	-10.1798
▁wait	-10.18
Export	-10.1804
Backup	-10.1821
POS	-10.1823
destination	-10.1831
Has	-10.1836
getCause	-10.1838
getStatus	-10.1844
▁comment	-10.1849
Interceptor	-10.1859
▁Context	-10.1861
getHeight	-10.1862
STATE	-10.1863
OBJECT	-10.1863
SC	-10.1866
▁cp	-10.1867
▁dependency	-10.1872
Bind	-10.1873
▁Ovh	-10.188
Transformer	-10.1887
Escape	-10.1893
range	-10.1895
MS	-10.1897
Static	-10.1898
▁Float	-10.1903
▁1000	-10.1913
cas	-10.1927
Intent	-10.1928
▁pass	-10.1937
Rows	-10.1944
apache	-10.1949
▁10	-10.1952
▁uuid	-10.1953
ARN	-10.1957
▁socket	-10.1968
Gen	-10.1982
▁"."	-10.1988
▁support	-10.1989
Seq	-10.1989
ibm	-10.1992
▁lo	-10.1993
▁move	-10.1999
Full	-10.2
Created	-10.2009
Scan	-10.2009
um	-10.2009
Safe	-10.2011
Tasks	-10.2025
▁flags	-10.2025
1;	-10.2027
Proto	-10.2028
getContent	-10.2029
▁scan	-10.2031
▁points	-10.2032
Initial	-10.2033
parameters	-10.2039
Login	-10.2046
Top	-10.2049
manager	-10.2052
ra	-10.2055
Present	-10.2057
▁resolved	-10.2066
COUNT	-10.2077
▁lines	-10.2089
"),	-10.2093
ro	-10.2094
children	-10.2097
▁comp	-10.21
compiler	-10.2104
ize	-10.2106
▁environment	-10.2109
Allowed	-10.2118
METHOD	-10.2121
MONTH	-10.2121
Features	-10.2122
Chars	-10.2124
SinglePage	-10.2125
TEXT	-10.2133
Objects	-10.2134
▁real	-10.2134
▁extra	-10.2134
ENTITY	-10.2149
▁bucket	-10.2151
▁lookup	-10.2151
Collectors	-10.2152
getSource	-10.2154
comp	-10.2155
▁/**	-10.2155
ack	-10.2162
EVENT	-10.2165
▁fetch	-10.2176
▁Array	-10.2177
visit	-10.2179
ls	-10.218
[3]	-10.2182
TypeName	-10.2185
Grid	-10.219
▁bind	-10.2192
OP	-10.2196
Exists	-10.2202
▁sign	-10.2204
Marker	-10.2211
keys	-10.2222
Envelope	-10.2223
Use	-10.2223
▁transport	-10.2231
Direct	-10.2232
▁role	-10.2242
▁Pair	-10.2243
▁Color	-10.2253
raw	-10.2255
};	-10.2258
Year	-10.2259
description	-10.2278
Boundary	-10.2287
▁them	-10.2288
▁Describe	-10.2291
▁commit	-10.2291
NaN	-10.2297
▁repository	-10.2302
Back	-10.2302
▁ioe	-10.2302
▁execution	-10.2304
ers	-10.2305
2;	-10.2312
▁tableName	-10.2325
▁cancel	-10.2327
15	-10.2332
▁getAll	-10.2345
▁Util	-10.2351
condition	-10.2355
▁desc	-10.2356
▁BufferedReader	-10.2368
extension	-10.2373
apiVersion	-10.2375
ping	-10.2378
Hex	-10.2379
ight	-10.2388
super	-10.2388
▁ds	-10.2392
▁fail	-10.2396
▁term	-10.2412
▁Validate	-10.2413
pair	-10.2418
Put	-10.2418
color	-10.2421
Utility	-10.2421
extract	-10.2422
pt	-10.2425
Literal	-10.2426
▁solution	-10.2451
("\\	-10.2452
Codec	-10.2453
▁owner	-10.2461
Merge	-10.2463
Management	-10.2473
prev	-10.2473
▁indent	-10.2489
▁zero	-10.2489
▁calendar	-10.2492
▁tuple	-10.2493
▁called	-10.2493
LE	-10.2498
▁perform	-10.25
Uuid	-10.2502
▁manager	-10.2503
▁expr	-10.2505
wrap	-10.2507
▁retry	-10.2508
▁year	-10.251
▁ps	-10.2514
ARRAY	-10.2522
INDEX	-10.2522
▁Component	-10.253
Auto	-10.2536
▁def	-10.2539
▁mask	-10.2545
▁FileInputStream	-10.2548
domain	-10.2553
per	-10.2559
▁featureID	-10.2562
alt	-10.2563
')	-10.2573
▁timestamp	-10.2577
▁prepare	-10.2578
FileOutputStream	-10.2581
▁escape	-10.2581
▁bits	-10.2583
▁matches	-10.2587
Secret	-10.2599
sh	-10.2605
BASE	-10.2606
tokens	-10.2606
Animation	-10.2613
▁protocol	-10.2614
attributes	-10.2616
setText	-10.2626
▁Tuple	-10.2637
3,	-10.2637
▁day	-10.264
ting	-10.2642
▁removed	-10.265
Home	-10.2658
DEBUG	-10.2659
▁accept	-10.2661
auth	-10.2663
(1,	-10.2668
ter	-10.267
▁addBody	-10.2673
Begin	-10.2675
▁signature	-10.269
fields	-10.2692
getBundle	-10.2692
▁matrix	-10.2694
▁running	-10.2694
Connector	-10.2704
Delta	-10.2704
▁display	-10.2711
ifc	-10.2721
▁diff	-10.2725
▁complete	-10.2732
Register	-10.2732
▁doesn	-10.2734
▁needed	-10.2738
Wait	-10.2739
Cause	-10.2739
Commit	-10.2741
▁attempt	-10.2741
▁see	-10.2746
▁messages	-10.2747
Dynamic	-10.2748
CONTENT	-10.2751
Ext	-10.2755
▁errors	-10.2761
▁identifier	-10.2764
[0]);	-10.2765
(0).	-10.2771
Services	-10.2771
("%	-10.2786
getEntity	-10.2793
Delay	-10.2797
Loop	-10.2797
by	-10.2806
▁"'"	-10.2807
Font	-10.2814
▁head	-10.2817
Ok	-10.2827
copyOf	-10.2832
ATTRIBUTE	-10.2835
▁layer	-10.2835
Rel	-10.2841
▁activity	-10.2845
readLine	-10.2853
Finder	-10.2854
▁Screen	-10.2858
device	-10.2864
PI	-10.2866
Clause	-10.2868
▁fill	-10.2871
reparedStatement	-10.2872
ok	-10.2876
save	-10.2881
round	-10.2881
Arn	-10.289
▁settings	-10.2893
▁Session	-10.2898
▁EClass	-10.2927
bundle	-10.2937
Depth	-10.2939
Reply	-10.2939
Disk	-10.2941
ME	-10.2957
getTarget	-10.2963
Timer	-10.2965
bind	-10.2966
==0	-10.2975
CA	-10.2975
Any	-10.298
ized	-10.2981
Closed	-10.2982
Success	-10.2984
▁never	-10.2988
▁SQL	-10.3004
Subject	-10.3004
/"	-10.3012
ACTION	-10.3025
Move	-10.3033
LINE	-10.3034
ServiceCallback	-10.3045
▁updated	-10.3048
newValue	-10.3057
DELETE	-10.3075
▁Service	-10.3076
Drawable	-10.3078
Retry	-10.3083
▁avoid	-10.3084
▁configure	-10.309
just	-10.3094
▁ApiException	-10.3094
prop	-10.3098
Issue	-10.3108
counter	-10.311
Visitor	-10.3115
▁profile	-10.312
24	-10.3122
getFirst	-10.3131
▁retrieve	-10.3131
callback	-10.3137
Supplier	-10.3138
▁predicate	-10.3138
▁artifact	-10.3141
23	-10.315
Sum	-10.315
lat	-10.3151
=\"	-10.3153
▁chars	-10.3154
▁algorithm	-10.316
▁separator	-10.3162
fileName	-10.3163
▁classLoader	-10.3168
<?>)	-10.3171
enable	-10.318
▁ClassNotFound	-10.3187
▁clean	-10.3195
Send	-10.3198
▁always	-10.3203
Save	-10.3214
▁"]"	-10.322
SEPARATOR	-10.3226
PER	-10.3231
co	-10.3237
module	-10.3237
Primitive	-10.3246
▁Cache	-10.3247
▁custom	-10.3259
Parse	-10.3267
USE	-10.3268
UI	-10.3272
getElement	-10.3274
Graphics	-10.3275
Sheet	-10.3275
sleep	-10.3275
WIDTH	-10.3275
▁OpenCms	-10.3275
▁elem	-10.3278
FINE	-10.3278
▁Logger	-10.3287
▁JsonObject	-10.3292
30	-10.3293
et	-10.3295
getApplication	-10.3305
Accessor	-10.3307
ri	-10.3308
▁jcasType	-10.3312
▁timer	-10.3323
Replace	-10.3325
Generic	-10.3336
original	-10.334
▁interface	-10.3341
Total	-10.3342
Permissions	-10.3345
isValid	-10.3349
▁inputStream	-10.3357
RA	-10.3357
0)	-10.3369
Errors	-10.3377
my	-10.3379
ParseException	-10.3385
NoSuch	-10.3386
▁center	-10.3386
▁err	-10.3388
Seconds	-10.3388
Publish	-10.3388
STATUS	-10.339
NS	-10.3392
▁Notification	-10.3397
▁ip	-10.3401
▁Result	-10.3401
▁registered	-10.3405
▁defined	-10.3411
Click	-10.342
isLoggable	-10.3423
core	-10.3423
▁space	-10.3425
Rest	-10.3427
▁converter	-10.3428
▁delegate	-10.343
▁controller	-10.3431
▁alias	-10.3439
getRecord	-10.344
▁zone	-10.3443
▁cs	-10.3467
isPresent	-10.3472
Zero	-10.3472
idBagConstraints	-10.3472
casFeat	-10.3473
isTraceOn	-10.3473
toByteArray	-10.3474
FieldName	-10.3474
▁pending	-10.3476
act	-10.3476
▁additional	-10.3491
mo	-10.3491
000	-10.3499
def	-10.3507
▁export	-10.351
▁jar	-10.351
▁Xml	-10.3514
flow	-10.3514
Digest	-10.3516
commit	-10.3521
▁Messages	-10.3529
Head	-10.3529
Scroll	-10.3535
▁auto	-10.3537
Extensions	-10.3537
warning	-10.3538
▁curr	-10.3542
▁vertex	-10.3544
Email	-10.3556
▁setup	-10.3558
fine	-10.3563
▁vector	-10.3563
EntityManager	-10.357
Elem	-10.357
▁opt	-10.3572
PATTERN	-10.3573
TRUE	-10.3573
ui	-10.3576
Ip	-10.3593
Render	-10.3596
Connect	-10.36
▁API	-10.3614
se	-10.3621
▁invalid	-10.3625
▁username	-10.3628
Without	-10.363
▁BigInteger	-10.3635
▁co	-10.3638
random	-10.3649
"+	-10.3656
AsString	-10.3657
Accept	-10.3658
role	-10.3661
▁got	-10.3664
can	-10.3673
▁nothing	-10.3674
▁StringBundler	-10.3674
na	-10.3677
Rect	-10.3677
Card	-10.3677
▁recover	-10.3689
▁qPath	-10.369
▁Client	-10.3691
▁allowed	-10.3698
▁'%	-10.3701
ISO	-10.3703
Stat	-10.3703
release	-10.3703
▁route	-10.3706
▁policy	-10.3718
▁Text	-10.3719
▁determine	-10.3721
Lookup	-10.3725
ify	-10.3729
▁region	-10.3732
▁Web	-10.374
▁Future	-10.3741
getState	-10.3742
▁archive	-10.3742
FORMAT	-10.3747
▁relation	-10.3749
▁criteria	-10.3771
CE	-10.3772
▁bounds	-10.3776
Tick	-10.3776
▁missing	-10.3788
▁structure	-10.3791
TypeReference	-10.3792
ByteArray	-10.3804
elements	-10.3805
Writable	-10.3808
provider	-10.3809
(-1	-10.3811
IC	-10.3827
Delivery	-10.3828
▁present	-10.3837
Src	-10.3842
mi	-10.3844
50	-10.3847
Blank	-10.3856
stack	-10.3857
ta	-10.3864
work	-10.3865
▁product	-10.3868
web	-10.3869
▁State	-10.3869
AT	-10.3871
Dao	-10.3878
Infos	-10.3879
SESSION	-10.388
CHAR	-10.3881
Commerce	-10.3884
▁Opcode	-10.3887
Filters	-10.3906
ErrorCode	-10.3912
cursor	-10.3915
ads	-10.3915
It	-10.3918
▁getIfc	-10.3919
cast	-10.3921
Definitions	-10.3931
www	-10.3932
Dependencies	-10.3932
Dispatcher	-10.3935
emptyList	-10.3935
partition	-10.3937
▁CharSequence	-10.3938
arr	-10.3939
▁commerce	-10.394
▁suffix	-10.3943
Equals	-10.3945
Polygon	-10.3955
▁5	-10.3957
toList	-10.3958
▁place	-10.3961
rt	-10.3965
found	-10.397
Active	-10.397
show	-10.3972
getEnd	-10.3979
tp	-10.3984
Analysis	-10.3984
▁exp	-10.3991
▁language	-10.4
▁score	-10.4003
Temp	-10.4008
31	-10.401
processException	-10.4014
▁did	-10.4015
@	-10.4017
▁flow	-10.4017
▁describe	-10.4017
tx	-10.4027
concat	-10.4028
Dis	-10.4036
Border	-10.4036
MASK	-10.4037
Execute	-10.4037
ES	-10.4037
Env	-10.404
SSL	-10.4051
pc	-10.4063
▁Database	-10.4065
▁Objects	-10.4071
02	-10.4071
RS	-10.4075
previous	-10.4078
▁global	-10.4086
endpoint	-10.4087
Priority	-10.4088
OutOfBounds	-10.409
ess	-10.4098
▁connect	-10.4104
conn	-10.4105
getClassLoader	-10.4107
mp	-10.4112
▁progress	-10.4129
getTask	-10.4129
Attempt	-10.4132
frame	-10.4136
checkNotNull	-10.4136
▁pair	-10.4138
Jar	-10.4141
top	-10.4142
Completion	-10.4142
WITH	-10.4143
▁without	-10.4144
access	-10.4147
ary	-10.415
▁slot	-10.4151
▁3)	-10.4151
Facet	-10.4156
Print	-10.4166
▁resourceName	-10.4179
getS	-10.4182
self	-10.4183
TargetException	-10.4184
distance	-10.4189
option	-10.4194
Compare	-10.4195
SERVER	-10.4196
▁site	-10.4197
▁InternalXbase	-10.4197
▁Error	-10.4201
▁"]	-10.4209
▁validation	-10.4215
consume	-10.4219
Persistence	-10.422
▁release	-10.4222
ay	-10.423
mark	-10.4233
▁shift	-10.4234
▁groups	-10.4235
collection	-10.4246
▁digest	-10.4247
cell	-10.425
Extractor	-10.4252
doubleValue	-10.4256
▁ids	-10.4257
ee	-10.4263
userAgent	-10.4266
▁simple	-10.4275
compile	-10.429
Down	-10.4295
Admin	-10.4302
25	-10.4302
square	-10.4304
database	-10.4323
Tx	-10.4326
groupId	-10.4326
isBlank	-10.4329
":	-10.4338
PARAMETER	-10.4349
day	-10.435
▁Int	-10.435
▁reading	-10.4355
▁Build	-10.4357
Patch	-10.4358
RETURN	-10.4358
UPDATE	-10.4359
▁too	-10.4374
▁\""	-10.4379
getComponent	-10.438
getLong	-10.4382
Encoder	-10.4387
stats	-10.4396
▁closed	-10.4398
()){	-10.4402
▁go	-10.4409
▁16	-10.441
batch	-10.441
proxy	-10.4413
Threshold	-10.4413
▁authentication	-10.4413
▁ParseException	-10.4419
fc	-10.4421
Main	-10.4422
▁import	-10.4431
EEnum	-10.4433
fieldName	-10.4435
--)	-10.4435
Bus	-10.4437
props	-10.4456
ho	-10.446
getConnection	-10.4463
▁round	-10.4464
era	-10.4466
▁button	-10.4466
▁nodeList	-10.4467
iferay	-10.4468
▁(@	-10.4468
Observer	-10.4468
WARNING	-10.4468
alias	-10.4469
FieldType	-10.4475
uc	-10.448
▁metric	-10.4481
AN	-10.449
▁flag	-10.4492
▁Security	-10.4496
getProperties	-10.4502
▁media	-10.451
Ad	-10.451
lib	-10.4516
Ops	-10.4519
▁web	-10.4521
edge	-10.4522
Runner	-10.4523
Center	-10.4526
▁lower	-10.453
19	-10.4551
cmd	-10.4553
CP	-10.4554
remote	-10.4562
Compound	-10.4572
Standard	-10.4573
▁encoded	-10.4574
Unique	-10.4585
skip	-10.4586
▁8)	-10.4587
processor	-10.4592
▁wrap	-10.4593
ang	-10.4596
Comp	-10.4604
▁remaining	-10.4605
Basic	-10.4605
Redirect	-10.461
▁Utils	-10.4619
metric	-10.4624
▁\	-10.4625
▁requested	-10.4626
▁Write	-10.4632
SOURCE	-10.4634
Solution	-10.4634
FALSE	-10.4635
▁would	-10.4635
▁least	-10.4635
PAGE	-10.4637
ByName	-10.464
INVALID	-10.4641
▁7	-10.4644
▁subject	-10.4645
DE	-10.4647
la	-10.4648
Members	-10.4649
Labels	-10.4649
17	-10.465
▁Application	-10.4673
ie	-10.4673
NumberFormat	-10.4676
getLast	-10.4678
▁Filter	-10.4686
▁information	-10.4691
=");	-10.4694
getInputStream	-10.4694
sPer	-10.4696
▁another	-10.4698
Shared	-10.4699
mapping	-10.4703
over	-10.4705
TS	-10.4723
▁childNode	-10.473
Bar	-10.4733
▁serverName	-10.4742
ERR	-10.4743
}"	-10.4743
FOUND	-10.4747
backtracking	-10.4747
LEFT	-10.4747
▁processing	-10.4748
flatMap	-10.4751
▁collect	-10.4753
graph	-10.4755
33	-10.4758
transaction	-10.4759
ut	-10.4765
▁comparator	-10.4769
Modifier	-10.4786
PublicKey	-10.4794
[0].	-10.4796
sResult	-10.4799
States	-10.4799
addr	-10.4801
▁inner	-10.4802
OS	-10.4811
expected	-10.4813
Workspace	-10.4813
Include	-10.4815
MP	-10.4817
factory	-10.4819
profile	-10.4824
Do	-10.483
Cached	-10.483
▁sp	-10.4833
getIndex	-10.4836
Lines	-10.4838
AS	-10.4845
▁msgs	-10.4851
Roles	-10.4855
ization	-10.4855
▁ResultSet	-10.4856
change	-10.4858
go	-10.4859
▁In	-10.4859
Virtual	-10.4861
YEAR	-10.4862
system	-10.4865
▁enabled	-10.4872
TimeZone	-10.4876
▁dialog	-10.488
ResultSet	-10.4892
▁variables	-10.4895
Fixed	-10.4903
▁candidate	-10.4903
▁definition	-10.491
APPLICATION	-10.4919
Bootstrap	-10.4919
Suffix	-10.4919
Indicator	-10.4919
cc	-10.4922
▁yet	-10.4922
nextToken	-10.4923
▁proc	-10.4931
lv	-10.4933
step	-10.4936
else	-10.4937
CmsResource	-10.4939
▁deleted	-10.4942
256	-10.4947
▁enable	-10.4953
ab	-10.4956
▁flush	-10.4961
2:	-10.4964
Conversion	-10.4973
▁api	-10.4974
Peer	-10.4977
PE	-10.4989
year	-10.4995
▁Delete	-10.4996
lookup	-10.4996
impl	-10.4996
Receiver	-10.5002
part	-10.5004
▁orig	-10.5004
apiClient	-10.5006
<?>[]	-10.5007
cancel	-10.5015
OUT	-10.5019
propertyName	-10.502
▁LA	-10.5024
7:	-10.5024
▁direction	-10.5028
SERVICE	-10.5035
Extended	-10.5038
escape	-10.5045
▁BufferedImage	-10.5055
Zip	-10.506
100	-10.5061
>\	-10.5063
Actions	-10.5069
▁maximum	-10.5075
Digits	-10.5082
INIT	-10.5083
Fetch	-10.5088
▁sync	-10.5088
▁Transaction	-10.5091
Unexpected	-10.5095
connect	-10.51
▁cookie	-10.5109
CmsObject	-10.5111
UP	-10.5114
names	-10.5115
where	-10.5116
Asset	-10.5125
Validate	-10.5126
Credential	-10.513
Mark	-10.5133
▁UnsupportedOp	-10.5135
▁columnName	-10.5135
▁origin	-10.5137
▁trans	-10.5149
erationException	-10.5151
getStart	-10.5159
let	-10.5159
▁ImmutableList	-10.5159
KeyValue	-10.5165
getVersion	-10.5168
opt	-10.5169
AND	-10.5171
initialize	-10.5172
▁memory	-10.5174
custom	-10.5177
TER	-10.5185
IllegalA	-10.5185
▁shutdown	-10.5188
▁editor	-10.5197
▁JSONArray	-10.5199
Clazz	-10.52
less	-10.5205
▁":"	-10.5206
Instant	-10.521
Specific	-10.521
Diagnostic	-10.5211
▁override	-10.5215
pow	-10.522
▁amount	-10.5227
Runnable	-10.5233
▁credentials	-10.5239
▁keep	-10.524
Appender	-10.5245
▁resolver	-10.5246
nextElement	-10.5247
▁Bean	-10.5248
SHA	-10.5251
ds	-10.5251
▁objects	-10.5255
▁--	-10.5256
getLocal	-10.5261
▁Void	-10.5262
grid	-10.5264
selected	-10.5264
Based	-10.5269
Arr	-10.5273
▁parsed	-10.5277
Pipe	-10.5277
ReturnType	-10.528
▁Predicate	-10.5281
putAll	-10.5281
getService	-10.5284
▁Read	-10.5284
Selected	-10.5287
getBase	-10.5291
MD	-10.5295
Logging	-10.53
4:	-10.53
second	-10.5319
tion	-10.5319
▁unique	-10.5323
▁UUID	-10.5328
▁gbc	-10.5331
▁Basic	-10.5333
GroupName	-10.5338
ttpURLConnection	-10.5341
real	-10.5341
sib	-10.5351
BE	-10.5355
▁success	-10.5356
fe	-10.5357
protocol	-10.5363
▁deployment	-10.5364
▁events	-10.5366
▁layout	-10.5366
Cancel	-10.5373
getMin	-10.5373
red	-10.5378
ob	-10.5379
Sorted	-10.5383
ADD	-10.5383
now	-10.5384
▁serialize	-10.5388
Words	-10.5397
Decoder	-10.5397
draw	-10.54
SE	-10.54
ssl	-10.5405
▁sorted	-10.5408
render	-10.542
items	-10.5421
BigDecimal	-10.5426
dm	-10.5426
▁DevFailed	-10.5426
Matches	-10.5428
An	-10.543
▁take	-10.5439
▁between	-10.5443
▁4)	-10.5444
▁optional	-10.5444
▁you	-10.5444
▁Charset	-10.5446
▁getPersistence	-10.5453
Filename	-10.5455
EventType	-10.5462
Marshaller	-10.5464
▁ca	-10.5467
oc	-10.5468
words	-10.5474
▁NOT	-10.5475
fsp	-10.5476
pi	-10.5484
remaining	-10.5488
space	-10.5494
Remaining	-10.5505
▁delay	-10.5507
Distribution	-10.5512
NUMBER	-10.5512
Variant	-10.5512
▁still	-10.5512
FINDER	-10.5512
ci	-10.5513
readInt	-10.5515
rv	-10.5518
Scheme	-10.5523
site	-10.5528
SUB	-10.5532
getTable	-10.5534
BY	-10.5534
▁mark	-10.5539
▁findBy	-10.5542
CC	-10.5551
[0],	-10.5551
methodName	-10.5551
ById	-10.5555
▁Command	-10.5557
▁paths	-10.5566
ca	-10.5569
tl	-10.5581
▁ssl	-10.5587
getColumn	-10.5594
▁6	-10.5597
und	-10.5598
GUI	-10.5598
Jsp	-10.5603
▁they	-10.5606
▁LinkedHashMap	-10.561
Debug	-10.5613
▁like	-10.5614
chunk	-10.5615
dialog	-10.5615
Transfer	-10.5626
Preference	-10.5628
▁free	-10.5629
Entities	-10.5635
Pixel	-10.5636
hasMoreElements	-10.5636
Exit	-10.5641
▁shape	-10.5642
Components	-10.5647
Reason	-10.5647
Generated	-10.5648
Random	-10.5652
Decl	-10.5653
tableName	-10.5654
▁radius	-10.5656
schedule	-10.5657
HttpClient	-10.5657
thread	-10.5662
Running	-10.567
age	-10.5672
payload	-10.568
interval	-10.5682
sync	-10.569
▁binary	-10.5693
drools	-10.5697
DISPLAY	-10.5698
▁during	-10.5698
sign	-10.5698
Amount	-10.5702
Person	-10.5702
Opt	-10.5707
getHost	-10.5711
getDescription	-10.5711
getPort	-10.5718
bo	-10.5719
▁stats	-10.5726
MediaType	-10.5728
pool	-10.5728
getLogger	-10.5729
br	-10.573
ncodingException	-10.5731
▁substitution	-10.5731
▁icon	-10.5731
center	-10.5745
▁know	-10.5752
try	-10.576
▁different	-10.576
Days	-10.5766
setAccessible	-10.5767
feature	-10.5767
ally	-10.5767
▁contain	-10.5769
-8"	-10.5769
▁Index	-10.577
▁menu	-10.5775
▁processor	-10.5775
▁high	-10.5777
ence	-10.5779
PROP	-10.5781
▁"");	-10.5788
filename	-10.5789
Behavior	-10.5792
ther	-10.5796
▁until	-10.5798
getAttributes	-10.5798
▁binding	-10.5805
ance	-10.5806
getSession	-10.5807
▁transition	-10.5809
BigInteger	-10.581
weight	-10.5813
▁dbc	-10.5814
▁variant	-10.5817
CREATE	-10.5817
addChild	-10.582
orElse	-10.5824
Old	-10.5829
▁features	-10.5833
Getter	-10.5833
▁relative	-10.5835
▁engine	-10.5839
▁equal	-10.5839
jar	-10.5842
▁Byte	-10.5843
JS	-10.5846
que	-10.5848
js	-10.5849
Modified	-10.5854
▁rec	-10.5857
bit	-10.5861
product	-10.5866
Example	-10.5873
encoding	-10.5874
poll	-10.5875
ck	-10.588
▁PrintWriter	-10.5882
OFFSET	-10.5887
▁down	-10.5888
dst	-10.5889
Matching	-10.5891
Other	-10.5897
▁intent	-10.5901
&	-10.5901
getLocalized	-10.5901
lt	-10.5902
▁driver	-10.5902
▁Event	-10.5904
writeLock	-10.5915
▁weight	-10.5922
▁correct	-10.5927
sWith	-10.5929
Trans	-10.5932
Completed	-10.594
▁":	-10.5942
cert	-10.5945
desc	-10.5946
LT	-10.5949
FormalParameter	-10.595
sqrt	-10.595
Pending	-10.5959
▁upper	-10.5965
CS	-10.5973
Segments	-10.5977
▁started	-10.5981
ating	-10.5983
▁eDataType	-10.5987
▁being	-10.5988
▁exc	-10.5989
Ch	-10.5989
Used	-10.5991
▁forward	-10.5994
--------------	-10.5995
+1]	-10.6001
ResourceBundle	-10.6003
▁Statement	-10.6004
▁Invocation	-10.6004
▁sample	-10.6009
CharSequence	-10.6011
Show	-10.6011
SELECT	-10.6012
Alert	-10.6014
▁'0'	-10.6014
CONTEXT	-10.6014
MethodName	-10.6016
getSystem	-10.6025
DIR	-10.6026
Evaluation	-10.6036
ver	-10.6037
▁failure	-10.6041
▁screen	-10.6042
ServiceException	-10.6047
getChildren	-10.6048
sBy	-10.6048
username	-10.6052
▁ignored	-10.6054
_1,	-10.606
CPDefinition	-10.6061
tags	-10.6064
Currency	-10.6066
Addresses	-10.607
Revision	-10.6072
digest	-10.6075
▁Buffered	-10.6076
headers	-10.6077
Producer	-10.6079
ATTR	-10.6085
Pointer	-10.6092
Charset	-10.61
back	-10.6101
Padding	-10.6109
▁changes	-10.6117
▁se	-10.6126
ax	-10.6129
▁generator	-10.6133
Contents	-10.6136
LONG	-10.6139
Branch	-10.614
▁schedule	-10.6141
▁Coordinate	-10.6142
Manifest	-10.6143
▁evaluate	-10.6145
expire	-10.6145
getFile	-10.6153
Exp	-10.6156
ClassNotFound	-10.6163
▁Project	-10.6164
Bindings	-10.617
▁multiple	-10.6171
▁Short	-10.6173
▁seconds	-10.6179
isNot	-10.618
Candidate	-10.6184
▁replacement	-10.6185
▁period	-10.6188
Ready	-10.6188
▁cert	-10.619
points	-10.6195
Versions	-10.6201
▁Model	-10.6202
Help	-10.6203
Origin	-10.6207
activity	-10.6208
CHECK	-10.6209
chain	-10.6209
Mail	-10.6209
▁also	-10.6209
Modify	-10.6209
Encoded	-10.6211
Dump	-10.6215
▁provided	-10.6216
ep	-10.6218
RG	-10.6224
▁month	-10.6225
Rpc	-10.6228
▁Remove	-10.6233
▁zip	-10.6239
inputStream	-10.6242
▁look	-10.6244
▁way	-10.625
▁wrapper	-10.6254
AttributeValue	-10.6261
▁Geometry	-10.6262
Configurations	-10.6265
responses	-10.6267
score	-10.6268
security	-10.6272
Scanner	-10.6275
AM	-10.6276
FileSystem	-10.6276
▁ext	-10.6279
javax	-10.6281
▁Not	-10.6282
ParameterTypes	-10.6294
Relationship	-10.6296
▁")"	-10.6299
Month	-10.6316
ling	-10.6317
▁security	-10.632
Cost	-10.632
available	-10.6321
GroupId	-10.6321
▁annotations	-10.6325
▁initialValue	-10.633
▁pt	-10.633
listeners	-10.634
Problem	-10.6341
RIGHT	-10.6341
Modification	-10.6341
FAILED	-10.6341
entries	-10.6344
removeAll	-10.6351
ContentType	-10.6356
WS	-10.6357
compute	-10.637
▁updateresources	-10.6371
▁getValue	-10.6372
Public	-10.6386
getServer	-10.6387
▁SI	-10.6387
▁regex	-10.6389
▁rel	-10.6395
AR	-10.6396
▁INDArray	-10.6399
Forward	-10.6401
Audit	-10.6402
▁Process	-10.6405
pr	-10.6407
window	-10.6412
EC	-10.6414
classes	-10.6415
▁panel	-10.6416
Checksum	-10.6416
Supported	-10.6422
▁100	-10.6422
▁HTTP	-10.6422
Regex	-10.6428
▁adapter	-10.6431
▁javax	-10.6432
lp	-10.6433
getOwner	-10.6442
pop	-10.6446
SO	-10.6447
▁#	-10.6457
▁stat	-10.6458
writeInt	-10.6463
TypeEnum	-10.6466
▁NULL	-10.6472
Catalog	-10.6475
Refresh	-10.6475
Mgr	-10.6475
Qualifier	-10.6476
ccessException	-10.6479
▁Channel	-10.6482
settings	-10.6483
free	-10.6484
▁CLASS	-10.649
ise	-10.6514
▁servlet	-10.6514
ATION	-10.6514
▁declared	-10.6515
Operations	-10.6518
▁js	-10.6519
Mappings	-10.652
Throw	-10.6527
Ring	-10.6529
MBean	-10.653
▁external	-10.6537
Download	-10.6538
Pane	-10.6539
Angle	-10.6542
Complex	-10.6542
netSocketAddress	-10.6542
Free	-10.6544
nextInt	-10.655
ignore	-10.6552
cookie	-10.6553
▁rules	-10.6554
folder	-10.6558
▁Rectangle	-10.6559
ness	-10.6562
Geo	-10.6562
General	-10.6565
CR	-10.6567
regex	-10.6567
▁ruleJvm	-10.6568
lastModified	-10.6568
Const	-10.6569
▁reason	-10.6569
Existing	-10.6571
26	-10.6576
Hint	-10.6576
dl	-10.6579
▁rw	-10.6593
Where	-10.6594
DO	-10.6601
▁For	-10.6606
▁require	-10.6608
St	-10.661
Instruction	-10.661
STYLE	-10.661
Since	-10.661
Slice	-10.661
WRITE	-10.661
▁implementation	-10.6611
acceptLanguage	-10.6613
Over	-10.6615
▁obtain	-10.6621
hi	-10.6623
▁monitor	-10.6627
▁seq	-10.6627
wait	-10.6628
IllegalAccess	-10.6636
)){	-10.6637
ByteString	-10.6638
▁acc	-10.6651
(0));	-10.6653
▁exclude	-10.6659
setDefault	-10.6661
Constraints	-10.6664
3:	-10.6667
▁dis	-10.6667
▁)?	-10.667
zip	-10.6673
DOCUMENT	-10.6679
SHORT	-10.6679
numCols	-10.6684
▁account	-10.6684
Resolved	-10.6688
▁accountName	-10.6697
exec	-10.6698
RO	-10.6702
▁dep	-10.6708
relation	-10.6714
▁notification	-10.6716
▁Certificate	-10.6717
▁fix	-10.6719
▁runtime	-10.6721
▁sc	-10.6726
▁It	-10.6731
▁fragment	-10.6739
Codes	-10.6739
▁pc	-10.6742
isNullOrEmpty	-10.6748
awt	-10.6748
Workflow	-10.6748
▁updateresource	-10.675
0.	-10.675
ical	-10.6753
▁Try	-10.6753
▁numberOf	-10.6758
setId	-10.6759
Tables	-10.6759
peek	-10.6764
▁getLog	-10.6765
▁(0	-10.6766
vert	-10.6767
Off	-10.6768
Immutable	-10.6769
Linked	-10.6771
▁merged	-10.6775
Dataset	-10.678
▁metrics	-10.678
▁network	-10.6783
Js	-10.6784
▁priority	-10.6787
▁Schema	-10.6788
HTML	-10.679
▁redirect	-10.6794
case	-10.6795
lease	-10.6804
Css	-10.6817
Pure	-10.6817
▁about	-10.6819
▁16)	-10.6824
QNAME	-10.6826
▁both	-10.6829
Dest	-10.6835
ColumnName	-10.6835
checkArgument	-10.6842
getResources	-10.6846
layer	-10.6849
▁deserialize	-10.6855
▁Tree	-10.6857
▁Validation	-10.6858
▁Variable	-10.686
Handlers	-10.6873
rate	-10.6883
Break	-10.6885
Focus	-10.6887
TIMEOUT	-10.6888
PUT	-10.6889
fix	-10.6891
Compiler	-10.6893
▁operator	-10.6896
▁cf	-10.6907
media	-10.6908
future	-10.6908
FileNotFound	-10.6909
▁factor	-10.691
ct	-10.6911
▁login	-10.6918
▁primary	-10.6925
▁Parse	-10.6928
▁serializer	-10.6929
▁increment	-10.6931
▁dist	-10.6938
SS	-10.6944
Detector	-10.6945
Collections	-10.6952
▁rest	-10.6954
getC	-10.6957
FILTER	-10.6957
Conversation	-10.6957
Using	-10.696
▁again	-10.6961
▁cb	-10.6965
▁createOrUpdate	-10.6975
*/	-10.6982
Inline	-10.6988
MimeType	-10.6988
Bound	-10.6998
▁companyId	-10.7004
▁modify	-10.7004
▁").	-10.7012
getP	-10.7013
eg	-10.7017
rc	-10.7025
▁Use	-10.7025
TASK	-10.7028
Vars	-10.7031
CT	-10.7034
APP	-10.7035
▁modified	-10.7036
bin	-10.7036
▁category	-10.7039
▁selector	-10.7048
Difference	-10.705
▁box	-10.7052
shutdown	-10.7056
duration	-10.7056
owner	-10.7059
▁upload	-10.7061
▁generated	-10.7062
▁normalize	-10.7063
▁contents	-10.7063
Links	-10.707
Keyword	-10.7073
LIMIT	-10.7074
▁cc	-10.708
▁dump	-10.7081
▁permission	-10.7083
▁md	-10.7083
▁Enumeration	-10.7084
Install	-10.7089
▁Un	-10.7092
setStatus	-10.7092
display	-10.7096
Persistent	-10.71
▁Mutable	-10.7103
▁Action	-10.7108
▁Gr	-10.7109
▁Random	-10.7118
(""))	-10.712
_0)	-10.7127
plugin	-10.713
▁classpath	-10.7132
=2;	-10.7144
span	-10.7149
▁Transformer	-10.7153
▁publish	-10.7153
▁force	-10.7154
▁CmsException	-10.7156
▁Block	-10.7156
Lifecycle	-10.7157
▁constant	-10.7159
Push	-10.7171
STREAM	-10.7172
Violation	-10.7172
▁HtmlTree	-10.7173
getConfig	-10.7175
Locked	-10.7178
route	-10.7178
Paint	-10.7181
ST	-10.7183
getPoint	-10.719
▁either	-10.7192
cls	-10.7192
trigger	-10.72
Addr	-10.7202
▁pipeline	-10.7203
comment	-10.7205
Sec	-10.7206
▁getDefault	-10.7216
Warning	-10.7216
▁were	-10.7217
▁tail	-10.722
ONE	-10.7226
getTag	-10.723
Reset	-10.7232
▁span	-10.7238
Track	-10.7238
Measure	-10.7241
▁pid	-10.7244
Shift	-10.7244
GENERIC	-10.7244
Contact	-10.7244
ENABLED	-10.7246
MILLISECONDS	-10.7246
Ctx	-10.725
▁IO	-10.7253
Sp	-10.7265
getItem	-10.7268
TableName	-10.7268
Naming	-10.7271
ExecutorService	-10.7275
candidate	-10.7279
runtime	-10.7282
▁paint	-10.7283
getBoolean	-10.7287
ROW	-10.7288
▁rc	-10.7289
▁bottom	-10.7303
Locator	-10.7304
En	-10.7304
▁negative	-10.7304
Chart	-10.7305
RES	-10.7306
Numeric	-10.7312
invalid	-10.7312
Blob	-10.7315
Library	-10.7317
bulk	-10.7317
Repeat	-10.7317
▁refresh	-10.7318
▁FFDCFilter	-10.732
ElementDecl	-10.7323
▁once	-10.7325
Availability	-10.7329
columns	-10.7331
Sets	-10.7335
dd	-10.7337
Serialization	-10.734
Ms	-10.7342
34	-10.7344
ne	-10.7345
▁selection	-10.7347
getClient	-10.735
▁bond	-10.7357
▁startTime	-10.7358
existing	-10.7358
valid	-10.736
toHex	-10.7361
FailedException	-10.7364
▁swap	-10.7364
getLocale	-10.7366
45	-10.7367
},	-10.7375
writeObject	-10.7382
import	-10.7385
Real	-10.7388
Aware	-10.7391
Contract	-10.7391
parts	-10.7393
▁cipher	-10.7395
Received	-10.7396
toCharArray	-10.7397
pp	-10.7401
serialize	-10.7405
▁TreeMap	-10.7405
FS	-10.7407
auto	-10.741
results	-10.7416
▁","	-10.7417
bits	-10.7424
▁Do	-10.7426
Mem	-10.7427
driver	-10.743
▁primitive	-10.7432
▁Note	-10.7433
Platform	-10.7436
ABLE	-10.7451
)*	-10.7458
FOR	-10.7465
FEATURE	-10.7465
Indices	-10.7465
▁instead	-10.7465
UNKNOWN	-10.7465
Clear	-10.7465
▁populate	-10.7465
opencms	-10.7468
▁worker	-10.7469
▁strategy	-10.747
SECONDS	-10.7473
ReadOnly	-10.7474
▁shared	-10.7474
lf	-10.7475
60	-10.7477
isNotEmpty	-10.7479
sym	-10.748
login	-10.7483
getRoot	-10.7484
getID	-10.7486
Bond	-10.7488
▁finish	-10.7489
▁NO	-10.7494
▁oldValue	-10.7499
▁Search	-10.7505
Multiple	-10.7506
should	-10.751
bar	-10.752
▁labels	-10.7522
Blocks	-10.7526
Indexes	-10.7527
au	-10.7529
getResponse	-10.7532
▁certificate	-10.7534
Creation	-10.7539
Append	-10.7539
UNIT	-10.754
Transformation	-10.7541
3);	-10.7543
▁iteration	-10.7547
Started	-10.7555
▁keyArea	-10.7555
getProject	-10.7558
▁mod	-10.7558
▁received	-10.7564
ue	-10.7567
spec	-10.7578
▁what	-10.7579
Side	-10.7583
▁ok	-10.759
trans	-10.7591
Conditions	-10.7592
HashMap	-10.7594
▁geometry	-10.7594
EntityType	-10.7595
submit	-10.7595
IAtom	-10.7596
elem	-10.7596
Publisher	-10.7599
getOutput	-10.7602
consumer	-10.7613
Dictionary	-10.7614
CONFIG	-10.7615
LEVEL	-10.7615
Browser	-10.7616
package	-10.7616
mul	-10.7622
po	-10.7623
▁fn	-10.7625
▁sw	-10.7625
px	-10.7626
Subscriber	-10.763
Callable	-10.764
variable	-10.7641
files	-10.7645
Tracker	-10.7653
ring	-10.7657
getGroup	-10.7658
IM	-10.7662
▁compiler	-10.7665
Users	-10.7666
▁Make	-10.7666
=1;	-10.7667
▁"_"	-10.7675
Invoke	-10.7676
expr	-10.7677
Jobs	-10.7678
Deleted	-10.7681
Mod	-10.7685
BUFFER	-10.769
Ratio	-10.769
JOB	-10.769
▁"%	-10.7693
Cmd	-10.7695
▁JSONException	-10.7701
tf	-10.7705
ice	-10.7705
low	-10.7712
▁principal	-10.7721
▁edit	-10.7722
Note	-10.7727
▁minimum	-10.7727
Convert	-10.7727
par	-10.773
▁reduce	-10.7731
addContent	-10.7737
Sent	-10.7737
Prev	-10.7737
language	-10.7743
getClassName	-10.7744
loader	-10.7745
▁constraint	-10.7749
▁debug	-10.7749
▁initialized	-10.7751
Pid	-10.7753
cloud	-10.7767
INTERNAL	-10.7767
Sentence	-10.7767
floor	-10.7769
▁mat	-10.777
▁Api	-10.7776
▁ts	-10.7776
▁setter	-10.7782
ast	-10.7784
▁draw	-10.7786
Windows	-10.7792
▁per	-10.7793
cal	-10.7796
▁Tag	-10.7798
Super	-10.7798
▁sentence	-10.78
Checker	-10.7803
Projection	-10.7806
ION	-10.7806
Coordinate	-10.7809
allow	-10.781
Dev	-10.7811
light	-10.7814
Reserved	-10.7814
identifier	-10.7817
▁dot	-10.7821
▁\"	-10.7821
("-	-10.7826
Bitmap	-10.7826
addListener	-10.7828
Sparse	-10.7833
HOUR	-10.7834
Watch	-10.7835
QualifiedName	-10.7836
Hook	-10.7837
Video	-10.7837
Sip	-10.7841
Program	-10.7842
▁scroll	-10.7848
SimpleDateFormat	-10.785
acc	-10.7864
fw	-10.7874
▁throwable	-10.788
▁addresource	-10.7884
cf	-10.7891
iz	-10.7896
Equal	-10.79
notify	-10.7902
DN	-10.7903
stmt	-10.7904
Ignore	-10.7905
statement	-10.7906
Parsed	-10.7908
▁methodBuilder	-10.7908
hashCode	-10.791
Bottom	-10.7921
Choice	-10.7921
Shard	-10.7928
Units	-10.7928
JSONObject	-10.7929
ptr	-10.7932
▁outer	-10.7933
Setup	-10.7938
ible	-10.7938
▁waiting	-10.794
getHeader	-10.7944
▁delimiter	-10.7948
Redis	-10.7957
scan	-10.7959
▁caller	-10.7969
Place	-10.7969
,"	-10.7976
getSize	-10.7976
setColor	-10.7983
dependency	-10.7983
before	-10.7984
More	-10.7985
Checked	-10.7985
dist	-10.7989
▁portlet	-10.7989
▁hex	-10.7992
▁attrs	-10.7996
Decimal	-10.7998
ORDER	-10.7998
Cloud	-10.7999
ONLY	-10.7999
DRL	-10.7999
Exchange	-10.8
▁otherwise	-10.8
_0=	-10.8002
35	-10.8009
\""	-10.8016
longValue	-10.8026
▁clone	-10.8028
▁Generic	-10.8032
▁configured	-10.8045
▁identity	-10.8047
▁filters	-10.8052
Gateway	-10.8057
▁Entry	-10.8058
bucket	-10.8058
NUM	-10.806
getInput	-10.8062
▁br	-10.8063
mapper	-10.8064
controller	-10.8065
▁Bundle	-10.8067
Creator	-10.8071
▁Comparator	-10.8076
QUERY	-10.8078
▁following	-10.8078
COLOR	-10.8078
Phase	-10.808
pay	-10.808
okhttp	-10.8082
setContent	-10.8086
Providers	-10.8092
▁components	-10.8095
▁'/'	-10.8102
md	-10.8105
Loading	-10.8109
▁SAXException	-10.8116
▁dx	-10.8116
full	-10.8117
ated	-10.8118
▁dy	-10.8121
Tr	-10.8122
▁pd	-10.8128
▁canvas	-10.8128
findBy	-10.813
▁completed	-10.813
Cipher	-10.8146
category	-10.8146
ensure	-10.8147
region	-10.8147
Named	-10.8148
▁alpha	-10.8149
Acl	-10.8154
Done	-10.8154
▁3;	-10.8155
Fallback	-10.8157
BAD	-10.8158
:2:	-10.8162
▁Cluster	-10.8164
addParameter	-10.8164
ass	-10.8165
▁Record	-10.817
storage	-10.8172
▁sym	-10.8174
[1]);	-10.8176
▁issue	-10.8192
Pa	-10.8193
Singleton	-10.8195
flags	-10.8196
our	-10.8202
CU	-10.8208
▁symbol	-10.8211
nl	-10.8212
getResult	-10.8213
▁words	-10.8216
seek	-10.8218
shape	-10.8218
BYTE	-10.822
getAtom	-10.8221
messages	-10.8223
TE	-10.8223
any	-10.8223
▁packageName	-10.8225
ified	-10.8236
led	-10.8236
('/'	-10.8237
▁instanceValue	-10.8238
▁consume	-10.8239
▁cos	-10.8244
▁means	-10.8248
Urls	-10.8249
▁dependencies	-10.8257
CH	-10.8262
40	-10.8262
{}	-10.8264
▁addresources	-10.8276
▁outputStream	-10.8278
ld	-10.8294
Dimension	-10.8296
▁section	-10.831
Skip	-10.8312
FF	-10.8312
▁Authentication	-10.8313
topic	-10.8314
publish	-10.8315
▁contentType	-10.8317
SUCCESS	-10.8318
Procedure	-10.8318
Migration	-10.8318
Topology	-10.8318
▁necessary	-10.8318
ACCESS	-10.8318
Terminal	-10.8318
NORMAL	-10.8318
Implementation	-10.8318
Meter	-10.8318
Partial	-10.8319
▁font	-10.8323
▁transformer	-10.8329
resolved	-10.8338
▁gr	-10.8342
▁sent	-10.8345
▁mean	-10.8346
pa	-10.8347
▁Commerce	-10.8353
▁Duration	-10.836
curr	-10.8362
▁answer	-10.8372
DataManager	-10.8375
▁special	-10.8383
▁let	-10.8384
++){	-10.8384
DS	-10.8385
mask	-10.8385
voice	-10.8391
Tango	-10.8397
CONSTRAINT	-10.8399
Substitution	-10.8399
▁parsing	-10.8399
DOUBLE	-10.8399
SCREEN	-10.8399
▁assume	-10.84
52	-10.8406
Tool	-10.8412
▁restore	-10.8413
chars	-10.8415
Threads	-10.8415
ten	-10.8417
TreeNode	-10.8419
▁subscription	-10.8419
IR	-10.842
Multimap	-10.8422
play	-10.8425
BYTES	-10.8425
JMS	-10.8432
Clock	-10.8439
▁buff	-10.8452
03	-10.8458
Nanos	-10.8466
▁WS	-10.847
tile	-10.8475
Sid	-10.8478
Struct	-10.848
Operand	-10.8481
ocpDate	-10.8481
Translation	-10.8481
Inclusive	-10.8481
Money	-10.8481
IMAGE	-10.8481
descriptor	-10.8481
ru	-10.8483
control	-10.8483
JC	-10.8484
mf	-10.8486
unused	-10.8489
▁safe	-10.8495
enabled	-10.8503
cd	-10.8503
▁'.'	-10.8504
▁"-	-10.8519
ml	-10.8524
Dist	-10.8524
▁members	-10.8529
▁candidates	-10.8531
▁datasource	-10.8538
▁translate	-10.8541
Numbers	-10.8544
Finish	-10.8554
Material	-10.8564
Handshake	-10.8564
Overlay	-10.8564
android	-10.8564
('.')	-10.8565
addPostParam	-10.8565
Scheduled	-10.8566
dc	-10.8567
directory	-10.8567
button	-10.8567
Utilities	-10.8569
Assertion	-10.8573
framework	-10.8576
only	-10.8582
▁helper	-10.8583
▁TypeToken	-10.8589
setType	-10.8591
▁Q	-10.8593
▁operations	-10.8595
ix	-10.8595
OPEN	-10.8595
getModifiers	-10.8596
Surface	-10.8601
▁IAtom	-10.8603
Executable	-10.8614
ResourceInner	-10.8616
▁grid	-10.8617
network	-10.8621
newArrayList	-10.8626
od	-10.8628
gl	-10.863
DataSet	-10.8647
FULL	-10.8647
Flush	-10.8647
Retrieve	-10.8647
CLIENT	-10.8647
Shell	-10.8647
SP	-10.8648
Defined	-10.865
▁InternalX	-10.8656
Membership	-10.8659
0000	-10.8659
actual	-10.8661
required	-10.8662
▁characters	-10.8668
Apply	-10.8673
▁scheme	-10.8684
Restriction	-10.8686
feat	-10.8687
getStatusCode	-10.8687
▁assignment	-10.8688
▁capacity	-10.8694
dn	-10.8696
US	-10.8697
seconds	-10.8698
FromString	-10.8699
pass	-10.8711
LS	-10.8712
ite	-10.8717
getParameters	-10.8719
▁matching	-10.8725
Increment	-10.8729
License	-10.873
Journal	-10.8731
DESCRIPTION	-10.8731
Bug	-10.8731
Extra	-10.8731
Fault	-10.8732
variant	-10.8733
▁isValid	-10.8734
▁due	-10.8735
after	-10.874
force	-10.8741
▁HttpResponse	-10.8742
ii	-10.8742
Second	-10.8748
ServletContext	-10.8754
FormatException	-10.8772
500	-10.8775
getConfiguration	-10.8775
▁quote	-10.8792
face	-10.8792
▁permissions	-10.8795
LOCAL	-10.8799
▁Types	-10.8805
SECOND	-10.8807
▁getResource	-10.8808
filtered	-10.8812
▁attributeName	-10.8813
("</	-10.8813
Classifier	-10.8816
▁ApiResponse	-10.8822
Unsupported	-10.8823
▁ac	-10.8824
[4]	-10.8827
fragment	-10.8827
▁async	-10.8827
bb	-10.8833
getFirstChild	-10.8834
icon	-10.8838
▁disable	-10.8838
▁stage	-10.884
Changes	-10.8841
tab	-10.8843
▁getter	-10.8851
▁depth	-10.8851
▁endIndex	-10.8855
8:	-10.8861
Same	-10.8863
dim	-10.8864
ClassInfo	-10.8864
▁bound	-10.8866
44	-10.8867
49	-10.8867
PRE	-10.8868
▁tab	-10.8876
move	-10.8877
▁1:	-10.8878
getParam	-10.8882
▁entityType	-10.8884
sp	-10.8887
non	-10.8892
Deserializer	-10.8895
Extract	-10.8898
getRaw	-10.8899
▁MozuUrl	-10.8902
SEVERE	-10.8902
Quick	-10.8902
ACTIVE	-10.8902
Resolution	-10.8903
Feat	-10.8905
Ssl	-10.8905
▁enum	-10.8908
fx	-10.8918
Scheduler	-10.8921
0;	-10.8924
mkdirs	-10.8924
▁standard	-10.8929
AC	-10.8941
printf	-10.8941
setEnabled	-10.8943
SL	-10.8945
▁StringWriter	-10.895
Final	-10.895
27	-10.8951
▁packet	-10.8955
eUnset	-10.8958
getIdentifier	-10.8963
▁SA	-10.8966
Sources	-10.8971
inc	-10.8971
▁whe	-10.8974
interrupt	-10.8978
▁processed	-10.8984
Portlet	-10.8985
Organization	-10.8985
RECORD	-10.8988
Mapped	-10.8989
Added	-10.899
dispose	-10.8991
jcas	-10.8992
FacesContext	-10.8993
PrivateKey	-10.8995
getCanonicalName	-10.8996
Composite	-10.8996
()+"	-10.8998
▁seed	-10.9003
getModel	-10.9005
(":")	-10.9007
▁bitmap	-10.9011
▁assign	-10.9013
▁StringTokenizer	-10.9014
race	-10.9014
▁normal	-10.9015
▁branch	-10.9015
SA	-10.9017
ObjectName	-10.9023
▁Runtime	-10.9025
▁pw	-10.9027
Face	-10.9031
▁Common	-10.9033
quote	-10.9037
Registered	-10.9044
uid	-10.9048
▁Intent	-10.9051
Release	-10.9051
▁12	-10.9051
▁Comparable	-10.9054
lo	-10.9062
▁needs	-10.9063
▁60	-10.9063
LOCK	-10.9065
Soy	-10.9066
43	-10.9066
▁fetchBy	-10.9067
Additional	-10.9075
HEIGHT	-10.9075
Categories	-10.9075
▁later	-10.9075
Discovery	-10.9078
▁setting	-10.9079
▁Constant	-10.9079
▁checkArgument	-10.9081
ities	-10.9082
Lower	-10.9085
writeAttribute	-10.909
are	-10.9092
responseFields	-10.9093
initial	-10.9095
36	-10.9096
IAtomContainer	-10.91
▁spec	-10.91
formatter	-10.9101
lu	-10.9105
rawtype	-10.9106
Negative	-10.9112
getLog	-10.9119
▁Instance	-10.9121
▁less	-10.9122
▁Template	-10.9126
▁me	-10.9145
operationType	-10.9149
▁integer	-10.9156
Hierarchy	-10.9162
ZERO	-10.9162
Framework	-10.9164
GL	-10.917
bound	-10.9173
Find	-10.9173
TH	-10.918
▁getNext	-10.9181
mac	-10.9183
28	-10.9183
Family	-10.9184
geometry	-10.9186
JarFile	-10.9188
LineString	-10.919
Replica	-10.919
29	-10.9191
▁versionId	-10.9193
SH	-10.9194
getTitle	-10.9195
▁cost	-10.9197
]))	-10.9199
GC	-10.92
Fix	-10.9212
65	-10.9217
80	-10.9227
▁digits	-10.9231
▁getInstance	-10.9232
▁snapshot	-10.9232
▁Fast	-10.9233
▁primaryKey	-10.924
▁Y	-10.9244
▁cr	-10.9246
Requested	-10.9247
Curve	-10.925
Username	-10.9251
Orientation	-10.9251
ENCODING	-10.9251
Encryption	-10.9251
flip	-10.9253
▁maybe	-10.9256
mm	-10.9256
MSG	-10.9257
46	-10.9257
("}"	-10.9258
ann	-10.926
▁destroy	-10.9268
Enable	-10.927
▁Multi	-10.927
▁Container	-10.927
construct	-10.9274
gauge	-10.9277
59	-10.9278
▁common	-10.9281
▁tz	-10.9282
sNext	-10.9282
ext	-10.9286
References	-10.929
DOM	-10.929
</	-10.9298
▁Column	-10.9313
Policies	-10.9316
allocate	-10.9318
▁addr	-10.9319
▁'{}'	-10.9319
▁Constructor	-10.932
▁recursive	-10.9321
listFiles	-10.9332
▁startIndex	-10.9333
▁EMPTY	-10.9338
Special	-10.934
▁above	-10.934
PUBLIC	-10.934
Sink	-10.934
isInfoEnabled	-10.934
Zoom	-10.9341
getR	-10.9341
Replacement	-10.9341
OperationStatus	-10.9341
▁ad	-10.9343
Pro	-10.9346
CmsException	-10.9348
Ordering	-10.9352
Jvm	-10.9352
Updates	-10.9353
servlet	-10.936
▁dim	-10.9363
reverse	-10.9364
▁low	-10.9365
getNumberOf	-10.9365
▁hour	-10.9368
PARENT	-10.9368
200	-10.9369
home	-10.9371
ens	-10.9373
Connections	-10.9374
▁appId	-10.9375
Parameterized	-10.9383
edit	-10.9387
▁tasks	-10.9388
("/"))	-10.939
TypeElement	-10.9391
redirect	-10.9397
▁mc	-10.9415
ServletException	-10.9416
Launch	-10.9422
/*	-10.9422
Private	-10.9423
rammarAccess	-10.9425
▁userId	-10.9426
▁Logging	-10.943
Semantic	-10.943
centroid	-10.943
MATCH	-10.943
Capture	-10.943
RULE	-10.943
UTC	-10.9431
protobuf	-10.9431
eGet	-10.9431
getTableName	-10.9436
PC	-10.9446
GP	-10.9451
MenuItem	-10.9458
▁Return	-10.9462
inner	-10.9463
NEW	-10.9463
NA	-10.9464
increment	-10.9464
equal	-10.9465
catch	-10.9466
export	-10.9467
Bad	-10.9468
fromJson	-10.9469
Gr	-10.947
▁serialized	-10.9471
▁download	-10.9472
email	-10.9473
>>>()	-10.9487
▁home	-10.9491
StringBuilder	-10.9492
▁exit	-10.9496
MO	-10.9508
seq	-10.9511
Fail	-10.9511
Annotated	-10.9516
▁EObject	-10.9518
Switch	-10.9521
OUTPUT	-10.9522
mutable	-10.9522
INPUT	-10.9526
▁within	-10.9526
▁widget	-10.9526
Reflection	-10.9526
Pairs	-10.9528
loadClass	-10.953
▁Item	-10.9532
▁UI	-10.9537
PR	-10.9538
place	-10.9548
▁Find	-10.9553
layout	-10.9558
▁visible	-10.9562
getLocation	-10.9563
▁Reference	-10.9563
▁checksum	-10.9568
setMax	-10.9572
▁Paged	-10.9575
▁gen	-10.9578
▁details	-10.958
NumberOf	-10.9583
▁instances	-10.9591
WithHttp	-10.9601
Me	-10.9611
FIRST	-10.9613
Known	-10.9613
compareAndSet	-10.9613
▁such	-10.9613
Drop	-10.9613
▁MessageDigest	-10.9614
▁track	-10.9616
▁IOUtils	-10.9619
MPS	-10.9624
▁ss	-10.9625
Actor	-10.9625
NotificationImpl	-10.963
▁loc	-10.9631
utf	-10.9632
▁connections	-10.964
▁history	-10.9641
getSuperclass	-10.9646
sample	-10.9653
artifact	-10.9653
capacity	-10.9653
priority	-10.9654
deployment	-10.9654
sha	-10.9657
▁adjust	-10.9664
ServletRequest	-10.9665
▁border	-10.9666
Jms	-10.9675
▁Source	-10.9677
▁SDVariable	-10.9678
arc	-10.9678
LI	-10.9693
▁dynamic	-10.9696
Epoch	-10.9699
▁EOF	-10.9701
▁strings	-10.9702
book	-10.9704
Oracle	-10.9706
UserSegmentRel	-10.9706
volume	-10.9706
Audio	-10.9706
Bulk	-10.9706
nanoTime	-10.9706
FLOAT	-10.9706
PROJECT	-10.9706
dict	-10.9715
▁retVal	-10.9718
JVM	-10.972
OFF	-10.9725
▁bar	-10.9726
Records	-10.9731
charset	-10.9731
ToAdd	-10.9731
▁userName	-10.9734
public	-10.9735
VM	-10.9735
getNamespace	-10.9735
Best	-10.9735
▁pointer	-10.9739
codePoint	-10.9743
▁cast	-10.9744
Artifacts	-10.9747
▁blocks	-10.9748
repository	-10.975
perform	-10.9751
getDeclaredField	-10.9759
accountId	-10.9761
proc	-10.9764
Repo	-10.9766
▁isn	-10.9768
▁these	-10.9775
▁JS	-10.9777
ry	-10.9779
▁KeyStore	-10.9783
▁Sql	-10.9791
logical	-10.9792
▁2.0	-10.9792
encoded	-10.9794
LayoutParams	-10.9794
rel	-10.9794
5,	-10.9797
Sibling	-10.9798
Lambda	-10.9799
Mutation	-10.9799
RESPONSE	-10.9799
Feed	-10.98
▁graphics	-10.9801
Country	-10.9805
calVarReturnType	-10.9808
▁TreeSet	-10.9809
cached	-10.9812
Requests	-10.9813
Navigation	-10.9814
Req	-10.9814
MM	-10.9818
Stmt	-10.982
(0))	-10.9825
Readable	-10.983
Charsets	-10.9833
▁master	-10.9835
monitor	-10.9841
PRO	-10.9841
▁QueryUtil	-10.9843
notification	-10.9846
transport	-10.9848
supported	-10.9849
You	-10.9852
▁20	-10.9853
enc	-10.9856
▁arrays	-10.9857
Configs	-10.9865
vserver	-10.987
▁usage	-10.9871
exp	-10.9876
▁instantiate	-10.9878
Symbols	-10.9879
Atoms	-10.9882
▁bs	-10.989
▁compile	-10.989
sec	-10.9892
war	-10.9892
▁Enum	-10.9893
Concept	-10.9893
Histogram	-10.9893
FRAME	-10.9893
ordinal	-10.9893
▁getOrCreate	-10.9897
09	-10.9898
FileStatus	-10.9904
Finished	-10.9905
isNull	-10.9905
▁plan	-10.9919
nt	-10.992
▁define	-10.9921
▁Metric	-10.9924
▁Local	-10.9928
ITEM	-10.9928
direct	-10.9934
▁Validator	-10.9934
normalize	-10.9937
Partitions	-10.9938
configure	-10.994
socket	-10.994
▁ServiceResponse	-10.9941
solution	-10.9943
sequence	-10.9944
matrix	-10.9944
her	-10.9945
forward	-10.9946
diff	-10.9947
simple	-10.995
▁Version	-10.9953
CO	-10.9959
Digit	-10.996
fa	-10.9964
Resolve	-10.9965
▁sip	-10.9967
multi	-10.9968
term	-10.9971
getDouble	-10.9976
Classpath	-10.9976
UserInfo	-10.9981
▁matched	-10.9984
▁te	-10.9984
▁clientId	-10.9986
▁Convert	-10.9987
Inventory	-10.9988
Monomer	-10.9989
Delimiter	-10.9989
JAVA	-10.9989
Tail	-10.9989
getConstructor	-10.999
▁finder	-10.9995
▁0.5	-10.9997
▁De	-10.9999
▁positive	-10.9999
PropertyName	-11
ke	-11.0001
);}	-11.0018
nd	-11.0019
▁returned	-11.002
Dep	-11.0024
getApp	-11.0024
dat	-11.003
fail	-11.0032
▁FileSystem	-11.0033
▁currently	-11.0034
activate	-11.0035
▁invocation	-11.0039
Targets	-11.004
be	-11.0042
Subnet	-11.0044
calculate	-11.0044
ql	-11.0048
NE	-11.005
▁Feature	-11.0052
▁agent	-11.0054
▁getProperty	-11.0059
getReturnType	-11.0059
▁even	-11.006
UR	-11.0066
Week	-11.007
▁attachment	-11.0072
Replication	-11.0083
INFINITY	-11.0085
INTEGER	-11.0085
SCOPE	-11.0085
MENT	-11.0086
▁MPSString	-11.0086
▁times	-11.0087
Dirs	-11.0092
rl	-11.0094
Cast	-11.0095
▁Servlet	-11.0096
ub	-11.0098
Preferences	-11.0099
▁iterable	-11.01
angle	-11.0101
▁seen	-11.0103
getDate	-11.0106
RGB	-11.0107
Reg	-11.0108
writeByte	-11.0113
install	-11.0113
▁chart	-11.0114
▁embedded	-11.012
Into	-11.012
▁based	-11.0121
>(_	-11.0124
parseLong	-11.0126
Illegal	-11.0127
▁basic	-11.0127
Hosts	-11.0128
Indent	-11.013
parsed	-11.0136
▁entities	-11.0139
pipeline	-11.0141
prepare	-11.0141
numRows	-11.0145
▁Row	-11.0146
cap	-11.0149
▁construct	-11.0149
booleanValue	-11.0153
hour	-11.0155
div	-11.0159
Edges	-11.0161
withParam	-11.0168
▁jedis	-11.0169
tz	-11.0171
▁lb	-11.0179
REFERENCE	-11.0182
SUFFIX	-11.0182
Tenant	-11.0182
▁ifNoneMatch	-11.0182
▁1024	-11.0183
SiteRoot	-11.0186
Setter	-11.0188
hole	-11.0189
PhoneNumber	-11.019
▁partial	-11.019
NodeType	-11.0191
▁24	-11.0191
▁Label	-11.0192
▁Status	-11.0194
MalformedURL	-11.0195
▁your	-11.0199
▁Execution	-11.0206
readLock	-11.0209
▁filePath	-11.0209
zone	-11.021
▁kernel	-11.0211
▁padding	-11.0213
▁dataSource	-11.0219
▁th	-11.0223
rp	-11.0226
BLOCK	-11.0227
Ident	-11.0232
ng	-11.0233
nn	-11.024
executor	-11.0241
▁backup	-11.0241
▁Activity	-11.0241
tuple	-11.0243
SVG	-11.0244
calendar	-11.0245
▁impl	-11.0246
90	-11.0252
txt	-11.0253
eNotification	-11.0255
("",	-11.0255
dbc	-11.026
comm	-11.0261
DD	-11.0262
nodes	-11.0268
▁example	-11.0278
Temporal	-11.028
CHANNEL	-11.028
▁LinkedHashSet	-11.028
pAddParam	-11.028
Two	-11.028
▁NumberFormat	-11.0281
closeQuietly	-11.0282
Exclude	-11.0284
mod	-11.0287
▁','	-11.029
sip	-11.0292
Tracking	-11.0293
isEnabled	-11.0301
▁axis	-11.0302
Radius	-11.0303
Fire	-11.0307
ou	-11.0311
getError	-11.0311
Classification	-11.0312
>"	-11.0312
getRemote	-11.0312
▁install	-11.0313
Alignment	-11.0318
▁Ignore	-11.0318
Indexed	-11.0319
▁tolerance	-11.0322
toJson	-11.0323
▁direct	-11.0323
isAnnotation	-11.0324
gis	-11.0326
▁jarFile	-11.0329
fetch	-11.0331
dev	-11.0338
▁atoms	-11.0338
history	-11.0346
kind	-11.0349
▁scanner	-11.0349
vector	-11.035
RI	-11.0355
elm	-11.0365
▁ii	-11.0366
▁Proxy	-11.0366
so	-11.0367
XPath	-11.0369
▁getClass	-11.037
RESULT	-11.037
Mouse	-11.0373
▁FFDC	-11.0375
SPACE	-11.0376
▁Constraint	-11.0376
contentType	-11.0386
Csv	-11.0388
EDataType	-11.0394
▁2]	-11.04
TypeInfo	-11.0404
ous	-11.0409
▁Writable	-11.0417
▁del	-11.0425
Coordinates	-11.0425
discover	-11.0428
▁reverse	-11.043
▁DTM	-11.044
▁peer	-11.0443
font	-11.0444
Syntax	-11.0446
Lazy	-11.0449
bl	-11.045
zero	-11.045
▁Standard	-11.0451
rpc	-11.0456
▁$	-11.0458
UCH	-11.046
ServiceName	-11.0463
Draw	-11.0464
Animator	-11.0466
▁fallback	-11.0466
▁TRACE	-11.0474
appId	-11.0475
Decode	-11.0477
▁loaded	-11.0477
Already	-11.0479
SYSTEM	-11.0479
Evaluator	-11.0479
Embedded	-11.0479
TEMPLATE	-11.0479
CENTER	-11.0479
eIsSet	-11.0479
QueryResult	-11.0494
(1.0	-11.0495
Net	-11.0496
hasMore	-11.0498
workflow	-11.0499
isArray	-11.05
ge	-11.0501
validation	-11.0502
▁cfg	-11.0505
Atomic	-11.0508
▁0.0)	-11.0508
LAST	-11.051
loc	-11.0511
eat	-11.0516
:9:	-11.0518
▁area	-11.052
▁Batch	-11.052
rd	-11.0532
▁bus	-11.0536
VIEW	-11.054
Loc	-11.0541
interface	-11.0541
Images	-11.0542
img	-11.0544
Ca	-11.0547
▁jsonObject	-11.0547
▁ring	-11.0548
1.0	-11.0548
▁closure	-11.055
engine	-11.0554
tail	-11.0554
menu	-11.0554
evaluate	-11.0554
getCode	-11.0556
Interfaces	-11.0556
▁indexes	-11.0557
formatUrl	-11.0557
fire	-11.0558
▁person	-11.0559
Anno	-11.0562
EOF	-11.0569
PA	-11.057
▁bi	-11.057
columnName	-11.0572
ifier	-11.0574
pointer	-11.0576
▁most	-11.0578
▁rf	-11.0579
FAILURE	-11.058
mult	-11.058
▁occurred	-11.058
▁Code	-11.058
SCHEMA	-11.0581
lower	-11.0584
upload	-11.0589
▁sin	-11.059
Jcr	-11.0597
▁asset	-11.0603
none	-11.061
EM	-11.0611
bs	-11.0613
Loaded	-11.062
getTotal	-11.0629
▁segments	-11.0629
▁temporary	-11.063
Band	-11.0633
IL	-11.0634
▁Cell	-11.0638
AccessToken	-11.0643
RM	-11.0652
Pages	-11.0653
Primary	-11.0658
▁Queue	-11.0659
suffix	-11.066
timestamp	-11.066
▁written	-11.0661
▁indices	-11.0661
6:	-11.0662
UnsupportedE	-11.0663
Ver	-11.0663
amount	-11.0664
▁email	-11.0665
Pr	-11.0665
NodeData	-11.0667
getStyle	-11.067
Allow	-11.0672
MINUTE	-11.0673
▁replica	-11.0676
Wrap	-11.0681
ability	-11.0681
Shutdown	-11.0682
Between	-11.0682
LoadBalancer	-11.0682
Placeholder	-11.0682
Rank	-11.0682
CONNECTION	-11.0682
ResourceAsStream	-11.0682
VE	-11.0683
FACTORY	-11.0684
▁getS	-11.0687
ord	-11.0689
▁inside	-11.0689
WithAnnotations	-11.0694
▁polygon	-11.0699
▁bb	-11.07
=%	-11.0703
▁visitor	-11.0707
JavaScript	-11.071
InMillis	-11.0713
▁Put	-11.0717
CacheKey	-11.0722
▁Single	-11.0722
additional	-11.0726
▁expect	-11.0737
GenericType	-11.0739
▁hi	-11.074
▁mid	-11.0742
▁sh	-11.0742
▁Rest	-11.0746
▁DOM	-11.0752
PS	-11.0756
▁exchange	-11.076
▁canonical	-11.0761
subject	-11.0765
plus	-11.0766
missing	-11.0766
NEXT	-11.0767
ian	-11.0768
Packages	-11.0771
associate	-11.0771
digit	-11.0772
Prepare	-11.0772
argument	-11.0773
63	-11.0777
getDatabase	-11.0779
Clean	-11.0779
cv	-11.078
isPrimitive	-11.0782
math	-11.0783
CONFIGURATION	-11.0785
Comparison	-11.0785
TARGET	-11.0785
▁MojoExecution	-11.0785
Authority	-11.0785
META	-11.0785
getDocument	-11.0789
safe	-11.079
▁fld	-11.0791
▁tok	-11.0796
Initialized	-11.0797
VAL	-11.0797
Estimate	-11.0801
▁Db	-11.0805
Dim	-11.0806
▁inter	-11.081
Reporter	-11.0815
▁implement	-11.0821
▁calling	-11.0823
▁angle	-11.0824
Spi	-11.0825
typeName	-11.0825
▁credential	-11.0829
▁Jvm	-11.0829
▁interfaces	-11.083
VALUES	-11.084
TypeVariable	-11.0841
▁partitions	-11.0848
▁checked	-11.085
▁localVar	-11.0851
▁generic	-11.0851
Duplicate	-11.0851
getBean	-11.0852
Force	-11.0854
Sq	-11.0856
getRef	-11.0862
Notify	-11.0864
▁nb	-11.0867
groups	-11.0867
destroy	-11.0869
ach	-11.087
▁Time	-11.0872
Removed	-11.0873
delegate	-11.0873
slot	-11.0874
hand	-11.0874
constructor	-11.0878
ship	-11.0879
▁cd	-11.088
admin	-11.088
Jdbc	-11.0882
Scene	-11.0885
▁Pdf	-11.0886
Sdk	-11.0887
Enforcer	-11.0889
BEGIN	-11.0889
Deferred	-11.0889
▁Otherwise	-11.0889
Mock	-11.0889
▁creating	-11.0889
Compression	-11.0889
enclosing	-11.089
Texture	-11.0891
FacesConfig	-11.0893
▁Writer	-11.0895
▁itself	-11.09
getM	-11.0902
▁specific	-11.091
Hour	-11.0912
man	-11.0919
isFile	-11.0921
▁cleanup	-11.0926
▁pe	-11.0926
▁jobId	-11.093
=\""	-11.0935
▁decoded	-11.0935
▁mv	-11.0943
ChangeListener	-11.095
▁unknown	-11.095
▁targetClass	-11.0952
clientResponse	-11.0954
parameterIndex	-11.0956
▁problem	-11.0958
boot	-11.096
▁databaseName	-11.0961
▁pad	-11.0961
Visibility	-11.0962
BIT	-11.0963
▁us	-11.0965
arguments	-11.0965
setData	-11.0968
▁dataset	-11.0972
▁Atlas	-11.0978
await	-11.0979
ACL	-11.0982
ler	-11.0983
Play	-11.0986
audio	-11.0993
Groovy	-11.0994
▁named	-11.0994
Volume	-11.0994
Canvas	-11.0994
Temporary	-11.0994
gallery	-11.0994
▁leaving	-11.0994
INTERVAL	-11.0995
DAO	-11.0996
selector	-11.0998
getDeclared	-11.101
getOffset	-11.1011
56	-11.1012
("{}	-11.1013
Terms	-11.1017
SequenceNumber	-11.1019
▁inv	-11.1023
HttpMethod	-11.1029
▁localName	-11.1042
ClientException	-11.1044
getLabel	-11.1044
▁getObject	-11.1046
cu	-11.1048
Patterns	-11.1053
▁threads	-11.1066
ErrorMessage	-11.107
Inputs	-11.1071
Caller	-11.1074
dot	-11.1078
▁middle	-11.1087
▁topology	-11.1088
Pdf	-11.1088
DOT	-11.1088
SARL	-11.1089
Mutable	-11.1092
vertex	-11.1093
QR	-11.1095
Low	-11.1095
Compact	-11.11
Spatial	-11.1101
Payment	-11.1101
Dialect	-11.1101
MB	-11.1101
Inbound	-11.1109
▁threshold	-11.1109
we	-11.1112
▁big	-11.1117
rb	-11.1127
▁difference	-11.1127
author	-11.1134
DefinitionInner	-11.1135
▁9	-11.1139
Helpers	-11.1144
ather	-11.1148
▁getMethod	-11.1152
▁ne	-11.1155
__0	-11.1159
▁addTo	-11.1164
setRequest	-11.117
Fill	-11.1179
54	-11.1181
Go	-11.1182
ha	-11.1182
Ranges	-11.1188
PropertyType	-11.1188
▁rev	-11.1191
NextToken	-11.1191
▁{//	-11.1197
▁Don	-11.1199
Grant	-11.12
delta	-11.1203
▁CmsUUID	-11.1204
ident	-11.1204
Streams	-11.1206
61	-11.1206
symbol	-11.1207
photo	-11.1207
Aggregation	-11.1208
Horizontal	-11.1208
Datum	-11.1208
TITLE	-11.1208
▁druidG	-11.1208
Jedis	-11.1209
▁hql	-11.1211
OptionRel	-11.1212
▁':'	-11.1212
Many	-11.1214
getUrl	-11.1216
Initializer	-11.1217
StartTime	-11.1223
see	-11.1223
track	-11.1223
▁managed	-11.1228
KeyField	-11.1229
▁dns	-11.1234
identity	-11.1235
getChild	-11.1236
▁EJB	-11.1239
attributeName	-11.124
att	-11.1243
▁compressed	-11.1244
CastException	-11.1245
▁repeat	-11.1246
success	-11.1246
getReference	-11.1251
}",	-11.1254
▁side	-11.1259
▁stored	-11.1259
ted	-11.1269
Buckets	-11.127
▁255	-11.1273
ade	-11.1278
▁reply	-11.1278
▁marker	-11.1279
OrderBy	-11.128
Dto	-11.1282
▁starting	-11.1282
(".")	-11.1285
getBody	-11.1286
getTimestamp	-11.1288
WebElement	-11.1289
Aggregator	-11.129
("/")	-11.1292
▁fixed	-11.1297
Cl	-11.1299
(4);	-11.1302
pending	-11.1302
Queries	-11.1307
mt	-11.1312
()])	-11.1312
refresh	-11.1316
TODO	-11.1317
Slash	-11.1317
BOOLEAN	-11.1317
WEB	-11.1317
LOCATION	-11.1317
Clone	-11.1318
▁finderArgs	-11.1318
constraint	-11.132
mail	-11.1321
Raster	-11.1328
Broker	-11.1329
setVisible	-11.1329
getRow	-11.1329
▁Scope	-11.133
cos	-11.1331
WithHeaders	-11.1341
cut	-11.135
▁trying	-11.1358
▁mappings	-11.1362
CL	-11.1363
NT	-11.1363
▁millis	-11.1368
▁dimensions	-11.1374
▁expand	-11.1376
features	-11.138
▁Font	-11.138
▁Illegal	-11.138
StackTrace	-11.1385
▁Protocol	-11.1385
ged	-11.1389
Identifiers	-11.139
Fast	-11.1392
ANY	-11.1392
JsonObject	-11.1396
▁LocalDate	-11.1397
▁audit	-11.1404
▁extensions	-11.1407
Slots	-11.1409
Backend	-11.1417
▁inputs	-11.1426
▁jvm	-11.1426
Alpha	-11.1427
Answer	-11.1427
ARGUMENT	-11.1427
Gradient	-11.1427
LABEL	-11.1427
▁inject	-11.1427
▁'-'	-11.1428
Idle	-11.1429
authentication	-11.1431
Updater	-11.1432
cannot	-11.1433
DEV	-11.1433
1:	-11.1438
▁dt	-11.1439
cr	-11.144
STORE	-11.144
iterable	-11.1442
);//	-11.1443
53	-11.1443
Tier	-11.1444
▁behavior	-11.1446
getAction	-11.145
PdfName	-11.1451
▁coreType	-11.1452
Theme	-11.1453
▁greater	-11.1455
eNotify	-11.1463
Watermark	-11.1463
▁RemoteException	-11.1464
"})	-11.1469
▁proto	-11.1469
Weights	-11.1477
rm	-11.1477
▁'\\'	-11.1478
sorted	-11.1478
ending	-11.1478
▁disabled	-11.1478
ump	-11.1482
meter	-11.1488
▁XMLStream	-11.1489
▁core	-11.1492
Corner	-11.1498
▁offsets	-11.1505
ft	-11.1508
Triple	-11.1516
▁pack	-11.1522
▁propName	-11.1522
unmodifiable	-11.1523
setTime	-11.1526
CLOSE	-11.1532
annotationType	-11.1533
Wave	-11.1537
Ajax	-11.1537
multiply	-11.1538
COMMA	-11.1538
TRANSACTION	-11.1538
BetaApi	-11.1538
Preview	-11.154
Serializable	-11.1543
▁mse	-11.1543
TRACE	-11.1543
NoSuchMethod	-11.1552
getB	-11.1556
▁coll	-11.1561
isInstance	-11.1563
PM	-11.1567
Stored	-11.1568
getSub	-11.1569
Dns	-11.157
bi	-11.1574
▁platform	-11.1576
▁scheduler	-11.1577
ACC	-11.1582
Locations	-11.1584
getAddress	-11.1584
▁Storage	-11.1586
LF	-11.1588
eak	-11.1593
ty	-11.1603
▁Parameter	-11.1604
▁cmp	-11.1609
▁receive	-11.1611
>>>>()	-11.1611
setString	-11.1613
RequestBuilder	-11.1617
PAREN	-11.1617
pn	-11.1623
42	-11.1623
})	-11.1628
CSS	-11.163
Fl	-11.1631
Vpc	-11.1632
▁precision	-11.1639
addAttribute	-11.1641
Under	-11.1643
Recovery	-11.1644
▁native	-11.1645
▁clusters	-11.1646
Eval	-11.1647
getTypeName	-11.1648
Literals	-11.165
▁finished	-11.165
compound	-11.165
CONTROL	-11.165
Ledger	-11.165
LINK	-11.165
Activation	-11.1651
Adjustment	-11.1651
Arc	-11.1653
▁Timer	-11.1653
putIfAbsent	-11.1654
▁handled	-11.1656
serve	-11.1656
XAResource	-11.1659
▁reg	-11.1665
▁NEXT	-11.1673
isEvent	-11.1677
▁cols	-11.1681
getJob	-11.1691
▁ws	-11.1693
▁Atom	-11.1693
inf	-11.1698
Attrs	-11.17
▁BpsimPackage	-11.1703
predicate	-11.1706
▁Now	-11.1707
isTrace	-11.1707
readObject	-11.1708
▁AND	-11.1708
▁UTF	-11.1713
Po	-11.1718
Chronology	-11.1718
▁roles	-11.1724
baseUrl	-11.1726
▁wrapped	-11.1727
▁provide	-11.1729
eq	-11.1729
alg	-11.1733
Buffers	-11.1739
Hours	-11.1747
setParent	-11.1752
FLAG	-11.1755
▁nested	-11.1757
▁Serializable	-11.1759
▁strip	-11.1762
OPERATION	-11.1764
TierPriceEntry	-11.1764
▁anything	-11.1764
Keep	-11.1764
preferred	-11.1766
named	-11.1767
ai	-11.177
singleton	-11.1771
▁actually	-11.1772
Leaf	-11.1773
delay	-11.1775
external	-11.1776
Restore	-11.1778
jdbc	-11.1782
▁dispatch	-11.1784
Mac	-11.1785
unique	-11.1787
ServiceInterface	-11.1799
▁currentNode	-11.1799
▁la	-11.18
BoundingBox	-11.1803
▁prevent	-11.1805
nz	-11.1807
Counts	-11.1808
Templates	-11.1809
▁Ifc	-11.1812
▁handlers	-11.1817
▁collector	-11.1828
Ticket	-11.183
openConnection	-11.183
ElementType	-11.1837
("\"	-11.1841
▁gauge	-11.1845
direction	-11.1846
css	-11.185
Connected	-11.1854
UserId	-11.1856
99	-11.1857
DT	-11.1858
coords	-11.1862
▁indexOf	-11.1863
LastModified	-11.1864
readResource	-11.1866
STR	-11.1875
Popup	-11.1878
Thrift	-11.1879
Explicit	-11.1879
Coord	-11.188
Exact	-11.188
phoneNumber	-11.1881
CommandLine	-11.1882
closed	-11.1883
NAMESPACE	-11.1883
ward	-11.1883
MILLIS	-11.1886
Utf	-11.1886
Reduce	-11.1887
CREATED	-11.189
account	-11.1892
jj	-11.1893
failure	-11.1897
AtomContainer	-11.19
▁exceptions	-11.1901
bond	-11.1903
ApiKey	-11.1905
cat	-11.191
▁img	-11.1912
▁fast	-11.1915
▁Callable	-11.1925
Issuer	-11.1928
▁Graph	-11.1937
getEvent	-11.1939
▁Remote	-11.1943
▁buffers	-11.1945
Descriptors	-11.1947
▁bootstrap	-11.1956
wd	-11.1957
exc	-11.196
getChannel	-11.1962
ML	-11.1969
Plain	-11.1969
Tran	-11.1969
▁repo	-11.197
▁io	-11.1973
PK	-11.1979
sessionId	-11.198
Relative	-11.1985
▁thrown	-11.1986
CSV	-11.199
Recursive	-11.1993
Machine	-11.1993
▁own	-11.1994
EXPRESSION	-11.1995
▁something	-11.1995
CommerceDiscount	-11.1995
EXTENSION	-11.1995
QUOTE	-11.1995
FOLDER	-11.1995
Reliability	-11.1995
Routing	-11.1996
EE	-11.1997
SIGN	-11.1998
RESULTS	-11.2006
▁CommandLine	-11.2006
▁annotated	-11.2008
EX	-11.2008
▁itr	-11.2012
Notation	-11.2013
bottom	-11.2017
registry	-11.2018
▁choice	-11.202
▁checking	-11.2028
▁Utility	-11.2032
▁authorization	-11.2035
▁rb	-11.205
mc	-11.2051
▁declaration	-11.2051
cn	-11.2053
isStatic	-11.2059
▁alert	-11.2061
Insn	-11.2062
!",	-11.2064
Enumeration	-11.2065
mem	-11.2073
Was	-11.2074
amp	-11.208
▁extended	-11.2081
▁32	-11.2082
ture	-11.2088
ApiException	-11.2088
▁loading	-11.2095
Aggregate	-11.21
▁Js	-11.2101
▁rotate	-11.2104
Bo	-11.2107
Breakpoint	-11.2108
logp	-11.2108
setSelected	-11.211
Physical	-11.2111
PORT	-11.2112
▁occur	-11.2113
IGNORE	-11.2113
PACKAGE	-11.2113
SDK	-11.2113
▁commands	-11.2113
Initialization	-11.2114
CDK	-11.2115
KeyStore	-11.2116
▁writeW	-11.2118
Quote	-11.2129
ever	-11.2133
deriv	-11.2133
▁rollback	-11.2134
plain	-11.2136
NetworkInterface	-11.2139
scroll	-11.214
running	-11.214
EndPoint	-11.2141
▁ms	-11.2143
▁rm	-11.2148
▁known	-11.2148
▁eval	-11.2148
","	-11.215
85	-11.2152
keyword	-11.2161
▁Module	-11.2162
getSchema	-11.2164
▁pkg	-11.2174
ithIndent	-11.2175
exiting	-11.2176
soft	-11.2177
Encode	-11.2181
Binder	-11.2183
▁drop	-11.2186
76	-11.2188
▁via	-11.219
▁Parameterized	-11.2192
CommonTree	-11.2209
getLanguage	-11.2209
▁Supplier	-11.2211
he	-11.2213
fp	-11.2214
▁hit	-11.2215
></	-11.2215
Sig	-11.2219
ras	-11.2219
▁tables	-11.2221
spi	-11.2222
lines	-11.2222
SecurityGroup	-11.2225
▁15	-11.2227
Construct	-11.2228
▁App	-11.2228
Tracing	-11.2229
ANNOTATION	-11.2232
DeclaringClass	-11.2232
EXCEPTION	-11.2232
Maybe	-11.2232
DDRM	-11.2232
BEAN	-11.2233
Injector	-11.2234
="+	-11.2234
hex	-11.2237
CASE	-11.2239
Signal	-11.224
getRuntime	-11.2241
▁closest	-11.2241
Mo	-11.2243
EntityMetadata	-11.2245
▁"\""	-11.2248
Functions	-11.2249
ToFile	-11.2255
▁fromIndex	-11.226
▁subscriber	-11.2261
▁Script	-11.2263
assert	-11.2263
strict	-11.2264
Monitoring	-11.2264
setCurrent	-11.2264
FL	-11.2269
▁sigma	-11.227
▁invalidate	-11.2272
DESC	-11.2274
BL	-11.2275
▁fl	-11.2285
▁bad	-11.2285
PolicyRequest	-11.2285
down	-11.2289
DataStore	-11.2289
▁transfer	-11.229
▁emit	-11.2293
FA	-11.2293
▁See	-11.2296
PackageName	-11.2296
newLine	-11.2297
▁conditions	-11.2297
▁edges	-11.2302
▁perm	-11.2308
▁DMatrixRMaj	-11.2308
dom	-11.2308
fmt	-11.2309
▁discard	-11.231
▁duplicate	-11.2311
using	-11.2315
▁200	-11.2318
▁sep	-11.2335
getDimension	-11.2335
nodeName	-11.2335
▁Only	-11.2339
eval	-11.2343
▁recovery	-11.2344
dataset	-11.2345
▁numeric	-11.2346
hadoop	-11.2352
HOST	-11.2352
Must	-11.2353
Plus	-11.2353
REMOVE	-11.2353
Unavailable	-11.2356
▁Tango	-11.2356
AST	-11.2357
ceil	-11.2358
▁tp	-11.2358
('\	-11.2358
▁really	-11.2362
("\""	-11.2366
gene	-11.2367
Sender	-11.2367
Probe	-11.2368
getSymbol	-11.237
▁ModelNode	-11.2373
▁many	-11.2375
player	-11.2377
asString	-11.2386
ChangeEvent	-11.2387
shift	-11.2388
environment	-11.2388
oid	-11.2388
39	-11.2392
onError	-11.2394
getOptions	-11.2394
▁digit	-11.2396
2>	-11.2397
97	-11.2399
dump	-11.2401
▁Span	-11.2401
▁setValue	-11.2411
▁tokenizer	-11.2413
▁getService	-11.2428
▁sink	-11.2428
▁closing	-11.243
methods	-11.2432
classLoader	-11.2439
▁Start	-11.2444
filePath	-11.2444
generated	-11.2445
▁Sequence	-11.2445
MXBean	-11.2452
pack	-11.2452
creat	-11.2459
NotEmpty	-11.2459
_8)	-11.2459
sin	-11.246
▁hostname	-11.2466
▁bug	-11.2467
1=	-11.247
Formats	-11.2472
WORD	-11.2473
High	-11.2474
▁Media	-11.2474
Synchronization	-11.2474
▁EFapsException	-11.2474
Upgrade	-11.2474
Exec	-11.2477
ZIP	-11.2478
▁injector	-11.2478
Updated	-11.2479
▁their	-11.248
ber	-11.248
Expired	-11.2482
(",")	-11.2484
▁vm	-11.2484
stat	-11.2484
Exist	-11.2485
▁below	-11.2486
executeQuery	-11.2487
▁NoSuchMethod	-11.2488
InternalSARL	-11.2489
▁connector	-11.2492
HttpResponse	-11.2493
subscription	-11.25
sax	-11.2502
FROM	-11.2513
signature	-11.2514
Health	-11.2515
agent	-11.2517
TextField	-11.2521
▁First	-11.2522
pl	-11.2525
Grammar	-11.2525
UL	-11.2525
getCache	-11.2529
▁CPDefinition	-11.2529
getFormatted	-11.2534
▁records	-11.2537
moveTo	-11.2537
require	-11.254
inflate	-11.2541
ba	-11.2544
▁xa	-11.255
▁shard	-11.2555
Then	-11.2557
▁klass	-11.256
drawable	-11.256
▁'/')	-11.2561
FORM	-11.2561
dup	-11.2565
fr	-11.2565
▁pEntity	-11.2566
▁clientResponse	-11.2567
HttpStatus	-11.2567
getSelected	-11.2567
Flat	-11.2568
▁clock	-11.2568
▁Partition	-11.2571
▁choose	-11.2573
Ast	-11.2575
propName	-11.2577
Beans	-11.2578
deserialize	-11.2578
errors	-11.2585
tive	-11.2588
▁Lock	-11.2589
▁jj	-11.259
▁nvae	-11.2594
Volt	-11.2596
PROCESS	-11.2596
Alarm	-11.2598
False	-11.2598
Privilege	-11.2598
WINDOW	-11.2598
VISIBLE	-11.2598
PRIORITY	-11.2598
highLowContainer	-11.2598
EOL	-11.2598
SCRIPT	-11.2598
FINEST	-11.2598
▁normalized	-11.2599
ier	-11.26
Compat	-11.26
da	-11.2602
▁filtered	-11.2603
CLOSED	-11.2604
▁On	-11.2605
lazyGet	-11.261
cmp	-11.2613
Starting	-11.2613
▁fos	-11.2613
Closure	-11.2615
▁reportError	-11.2625
▁minute	-11.2626
IV	-11.2631
▁contentLength	-11.2634
▁enc	-11.2638
semantics	-11.2639
isTrue	-11.264
▁kind	-11.2641
▁pixel	-11.2642
▁country	-11.2642
algorithm	-11.2643
JSType	-11.2643
Absolute	-11.2643
reply	-11.2644
loop	-11.2644
defined	-11.2645
Tmp	-11.2646
retry	-11.2647
My	-11.2648
("&	-11.2658
▁parentNode	-11.2658
notation	-11.2667
▁WebSocket	-11.2672
InputType	-11.2675
offer	-11.2678
equ	-11.2681
management	-11.2684
0.0	-11.2686
▁statistics	-11.269
Su	-11.2693
RequestMethod	-11.2697
way	-11.27
common	-11.2702
▁Condition	-11.2705
doPrivileged	-11.2713
Dispatch	-11.2716
dep	-11.2722
Micro	-11.2722
white	-11.2723
Dependent	-11.2723
observable	-11.2723
▁better	-11.2723
ALIGN	-11.2723
CmsXmlContent	-11.2723
Possible	-11.2723
▁Mismatched	-11.2723
Disabled	-11.273
swing	-11.2731
▁references	-11.2732
Insets	-11.2733
Tools	-11.2735
MPP	-11.2738
readByte	-11.2742
Invoker	-11.2747
Acc	-11.275
▁interceptor	-11.275
Contain	-11.2752
ResponseInner	-11.2754
▁resultSet	-11.2754
projectIdOrPath	-11.2757
▁Primitive	-11.2758
▁popup	-11.2763
▁Parser	-11.2765
FE	-11.2766
ElementException	-11.2767
CF	-11.2769
getProtocol	-11.2771
QueryParam	-11.2775
DTM	-11.2775
▁rhs	-11.2777
:"+	-11.2777
IBond	-11.2783
Channels	-11.2784
TYPES	-11.2785
addStatement	-11.2787
▁pm	-11.2793
Serial	-11.2795
FileUtils	-11.2796
isClosed	-11.2799
gt	-11.2801
getApi	-11.2808
▁Trace	-11.281
ErrorException	-11.2811
note	-11.2817
credentials	-11.2817
Reload	-11.2818
caption	-11.2818
Commands	-11.282
RequestBody	-11.2822
Cap	-11.2825
converter	-11.2826
87	-11.2826
each	-11.2831
IRI	-11.2832
Expand	-11.284
week	-11.2841
entities	-11.2842
Book	-11.2842
insets	-11.2844
events	-11.2845
:5:	-11.2846
>0)	-11.2848
AUTH	-11.2849
Percent	-11.2849
CURRENT	-11.2849
Sensitive	-11.2849
population	-11.2849
SINGLE	-11.2849
decorator	-11.2849
▁AssertionError	-11.285
iFieldSeq	-11.285
▁virtualNetwork	-11.285
Raid	-11.285
Directive	-11.2851
▁successfully	-11.2851
▁directly	-11.2852
ERT	-11.2853
ROLE	-11.2853
▁executeDescribe	-11.2853
nr	-11.2854
Multipart	-11.2857
getPartition	-11.2857
▁errorMessage	-11.286
▁getCurrent	-11.286
timer	-11.2861
recycle	-11.2861
▁ResourceBundle	-11.2862
▁qPos	-11.2862
▁executeGet	-11.2864
▁df	-11.2869
PARAMETERS	-11.2871
getCluster	-11.2873
deviceName	-11.2874
reg	-11.2874
\":	-11.2874
JPA	-11.2875
▁constraints	-11.2876
Previous	-11.2877
putInt	-11.288
▁under	-11.2883
VO	-11.2887
▁renderer	-11.289
OVER	-11.2891
finish	-11.2891
32)	-11.2892
▁launch	-11.2895
123	-11.2896
▁receiver	-11.2901
Injection	-11.2901
CON	-11.2902
unknown	-11.2904
dy	-11.2905
verify	-11.2905
backup	-11.2905
1.1	-11.2909
declared	-11.2911
getUri	-11.2915
getExtension	-11.2918
Trie	-11.2918
AttributeName	-11.2918
▁'"'	-11.2918
numberOf	-11.292
BufferSize	-11.2923
pid	-11.2924
readOnly	-11.2927
▁solve	-11.293
▁httpClient	-11.2932
▁BufferedWriter	-11.2935
▁ordered	-11.294
subList	-11.294
▁getP	-11.2941
Realm	-11.2941
df	-11.2945
getView	-11.2947
▁animation	-11.2948
CmsResourceType	-11.2955
Mean	-11.2955
SearchResult	-11.296
38	-11.2974
OT	-11.2974
TimeoutException	-11.2975
WORK	-11.2978
board	-11.2978
ALGORITHM	-11.2978
Camera	-11.2978
TaxFixedRate	-11.2978
Lightweight	-11.2978
▁every	-11.2978
Elasticsearch	-11.2978
▁UrlFormatter	-11.2978
▁specify	-11.2978
GrayU	-11.2978
persistence	-11.2981
HS	-11.2983
06	-11.2984
du	-11.2984
EDIT	-11.2988
▁cnt	-11.2989
getEntry	-11.2993
vict	-11.2993
STOP	-11.2996
▁runnable	-11.2997
▁fall	-11.2997
prepareStatement	-11.2998
▁30	-11.2999
getContainer	-11.3001
MR	-11.3002
Prefixes	-11.3002
255	-11.3002
▁detect	-11.3005
▁codec	-11.3006
▁'\\	-11.3016
▁li	-11.3017
1[	-11.3019
done	-11.3023
▁NodeList	-11.3025
▁NAME	-11.3026
Bin	-11.3026
▁Immutable	-11.3028
PT	-11.3029
▁St	-11.303
▁inline	-11.3031
▁zipFile	-11.3032
Unicode	-11.3036
static	-11.3039
getCount	-11.3039
NN	-11.3041
https	-11.3044
advance	-11.3044
▁half	-11.3045
Parallel	-11.3046
▁accessToken	-11.3046
getRootPath	-11.3046
tar	-11.3049
EXP	-11.3052
▁checkState	-11.3059
CPDefinitionId	-11.3062
▁HTML	-11.3065
▁Counter	-11.3067
▁crc	-11.307
▁connected	-11.3071
Minutes	-11.3072
ht	-11.3073
ThreadPool	-11.3074
▁scores	-11.3076
Cols	-11.3076
▁mg	-11.3079
checkState	-11.308
getShort	-11.3081
▁Open	-11.3083
▁formatted	-11.3084
-"	-11.3092
▁Co	-11.3093
▁combine	-11.3095
projectId	-11.31
▁dead	-11.3103
▁Box	-11.3104
Statements	-11.3104
Collect	-11.3104
Fraction	-11.3107
Excel	-11.3107
MAPPING	-11.3107
Abort	-11.3108
GREATER	-11.3108
Proposal	-11.3108
ableAltException	-11.3108
Velocity	-11.3108
AUTO	-11.3108
COMMENT	-11.3108
55	-11.3108
Alg	-11.3109
▁hold	-11.3111
▁[%	-11.3113
setS	-11.3114
AccessController	-11.3115
▁disk	-11.3116
▁cons	-11.3116
▁lhs	-11.3117
▁manifest	-11.3118
PrivilegedAction	-11.3118
writeEnd	-11.3118
columnIndex	-11.3118
Dimensions	-11.3122
stamp	-11.3123
▁Instantiation	-11.3125
predict	-11.3125
RSA	-11.3126
▁Cipher	-11.3127
mitted	-11.3131
▁Input	-11.3137
▁holder	-11.3137
▁jsonArray	-11.3138
▁working	-11.3138
Dot	-11.3143
▁servletContext	-11.3146
DBID	-11.3146
0:	-11.3148
▁registration	-11.3149
getMethods	-11.315
SuccessResponse	-11.315
▁HttpMethod	-11.3152
mb	-11.3153
sep	-11.3157
▁well	-11.3158
CommercePrice	-11.3159
period	-11.3163
reduce	-11.3169
▁numbers	-11.317
ClassDescriptor	-11.318
isIn	-11.3184
Vec	-11.3186
ServiceInstance	-11.3187
▁scheduled	-11.3187
▁newInstance	-11.3194
CPInstance	-11.3198
("--	-11.3198
Written	-11.3198
▁currency	-11.3199
getPage	-11.3205
Unsigned	-11.3208
services	-11.3208
-8	-11.321
factor	-11.321
optional	-11.3212
▁SAX	-11.3213
Price	-11.3216
75	-11.3221
▁probe	-11.3223
▁iterate	-11.3224
▁billingAccount	-11.3227
▁InetAddress	-11.323
▁conversion	-11.3234
ActionEvent	-11.3238
JAXB	-11.3239
histogram	-11.3239
PROPERTIES	-11.3239
ANCHOR	-11.3239
POSITION	-11.3239
alarm	-11.3239
Seen	-11.3239
▁Hashtable	-11.3239
Related	-11.324
Hub	-11.3241
Soft	-11.3243
▁ImmutableSet	-11.3245
strCommand	-11.3249
▁envelope	-11.3249
▁"\\	-11.3251
WorkUnit	-11.3253
▁NoV	-11.3255
CheckBox	-11.3256
▁literal	-11.3257
userId	-11.3261
Faces	-11.3265
addProperty	-11.3268
▁bytesRead	-11.3268
DA	-11.3269
PrimaryKey	-11.327
-1]	-11.3271
Sha	-11.3272
ors	-11.3282
GEN	-11.3284
utils	-11.3288
getStackTrace	-11.3295
▁trailing	-11.3296
sun	-11.3299
Secure	-11.33
▁Socket	-11.3301
Conditional	-11.3305
79	-11.3308
dt	-11.3309
assignment	-11.3309
▁stringBuilder	-11.3312
("{	-11.3312
pkg	-11.3314
&&	-11.3317
▁boundary	-11.3319
opcode	-11.3324
▁ty	-11.3326
▁So	-11.3328
▁alluxio	-11.3332
▁Copy	-11.3335
ong	-11.3337
▁func	-11.3339
AddOn	-11.3339
▁Extension	-11.334
▁directive	-11.3342
▁vals	-11.3346
▁qualifier	-11.3351
PathParam	-11.3351
CW	-11.3351
▁di	-11.3357
▁typeName	-11.3357
Descr	-11.3359
LOAD	-11.3359
cx	-11.3363
▁jdbc	-11.3363
Poll	-11.3364
ind	-11.3368
▁geom	-11.3368
Look	-11.3372
Positive	-11.3372
Voice	-11.3372
Exclusive	-11.3372
Reverse	-11.3372
ADDRESS	-11.3372
DayOfWeek	-11.3372
commerceDiscount	-11.3372
Bracket	-11.3372
DELIMITER	-11.3372
Isotope	-11.3372
Solver	-11.3372
exclude	-11.3373
SEGMENT	-11.3373
Cpu	-11.3373
Outbound	-11.3374
reflect	-11.3375
AttributeType	-11.3376
GrayS	-11.3376
2))	-11.338
▁propertyValue	-11.3381
▁small	-11.3382
▁lib	-11.3382
Recommendation	-11.3382
modifiers	-11.3382
▁expressions	-11.3387
prototype	-11.3392
Ordered	-11.3394
▁projectId	-11.3395
agger	-11.3396
16)	-11.3396
URISyntax	-11.3398
getQuery	-11.3399
▁xpath	-11.3402
▁won	-11.3405
▁minor	-11.3405
CacheSize	-11.3406
▁evt	-11.3407
▁Signature	-11.3408
CODES	-11.3409
Tax	-11.3411
asset	-11.3412
95	-11.3416
▁Collector	-11.3422
isWhitespace	-11.3425
▁DataSource	-11.3425
Canonical	-11.3425
▁signal	-11.3425
▁Term	-11.3426
TimeUnit	-11.3426
side	-11.3427
Abs	-11.343
▁httpRequest	-11.343
▁requires	-11.3438
▁workspace	-11.3444
▁saved	-11.3446
Assert	-11.3447
scheme	-11.3448
screen	-11.3449
high	-11.345
visible	-11.3453
▁bd	-11.3456
▁wrong	-11.3458
84	-11.3463
▁FROM	-11.3464
JSONArray	-11.3466
UserSegmentEntry	-11.3467
ern	-11.3467
Contains	-11.3468
mean	-11.3469
marker	-11.3472
▁library	-11.3476
repo	-11.3477
Xid	-11.3477
Hidden	-11.348
()[0]	-11.3484
izer	-11.3485
Func	-11.3489
▁phase	-11.3489
EQUAL	-11.3493
▁tick	-11.3496
▁Test	-11.3498
▁OAuth	-11.3499
Upper	-11.3501
VirtualMachine	-11.3501
▁relationship	-11.3501
Executors	-11.3502
://"	-11.3502
▁summary	-11.3504
▁cat	-11.3506
▁mimeType	-11.3506
Maximum	-11.3506
used	-11.3507
▁cpDefinition	-11.3507
terminate	-11.3507
Representation	-11.3508
privilege	-11.3508
Ascii	-11.3508
WAIT	-11.3508
Photo	-11.3508
Reservation	-11.3508
▁associated	-11.3508
ttl	-11.3508
Weak	-11.3511
▁Binary	-11.3512
Associated	-11.3514
defaultValue	-11.3516
▁PrintStream	-11.3517
FLAGS	-11.3519
Ret	-11.3519
▁coordinates	-11.3523
▁"-"	-11.3524
▁unregister	-11.3528
border	-11.353
pad	-11.3532
▁cycle	-11.3533
der	-11.3536
Datastore	-11.3539
Dec	-11.3552
redis	-11.3558
▁pred	-11.3559
▁submit	-11.3561
▁apiVersion	-11.3564
CD	-11.3566
Router	-11.3571
▁fraction	-11.3575
▁incoming	-11.3583
JavaType	-11.3583
▁orderBy	-11.3584
selection	-11.3587
principal	-11.3589
progress	-11.3589
adaptor	-11.3589
depth	-11.359
▁instanceId	-11.3594
▁encoder	-11.3594
Offsets	-11.3597
▁mol	-11.3597
ops	-11.3599
▁ranges	-11.3601
HttpHeaders	-11.3602
eSet	-11.3602
▁TimeZone	-11.3603
-1;	-11.3608
getHeaders	-11.3612
▁Files	-11.3612
▁jobName	-11.3614
ClassDoc	-11.3614
TypeDesc	-11.3617
fn	-11.3619
getToken	-11.3624
Now	-11.3624
▁problems	-11.3626
Devices	-11.3627
▁fis	-11.3633
statementBuilder	-11.3633
▁groupName	-11.3633
IgnoreCase	-11.3638
Samples	-11.3644
▁large	-11.3644
▁remain	-11.3644
▁getType	-11.3644
translation	-11.3645
Cardinality	-11.3645
consistent	-11.3645
hidden	-11.3645
▁consider	-11.3645
MIME	-11.3645
Implicit	-11.3645
balance	-11.3645
incrementAndGet	-11.3645
▁CSS	-11.3645
Wire	-11.3645
▁calls	-11.3645
▁en	-11.3646
(':')	-11.3647
Divider	-11.3648
▁downstream	-11.3649
▁cli	-11.365
Pref	-11.3654
gram	-11.3656
getFeature	-11.3658
▁parameterTypes	-11.3664
getRepository	-11.3667
dataSource	-11.367
month	-11.367
Author	-11.3676
Integration	-11.3676
getOrder	-11.3677
getCommand	-11.368
:"))	-11.3682
share	-11.3684
getMetaData	-11.3688
▁waitFor	-11.3689
Checkpoint	-11.3691
▁Plugin	-11.3691
leader	-11.3692
▁Auth	-11.3696
mit	-11.3698
▁zoom	-11.3705
▁VALUE	-11.3707
AWS	-11.3708
▁currentValue	-11.3711
▁Artifact	-11.3714
sheet	-11.3719
assign	-11.3725
getDestination	-11.3725
currentTime	-11.3726
▁promise	-11.3728
orig	-11.3729
clean	-11.3729
eventType	-11.3731
Ldap	-11.3731
secret	-11.3732
break	-11.3733
getResourceType	-11.3734
▁entityClass	-11.3739
detail	-11.374
accessToken	-11.374
▁weights	-11.3744
Modules	-11.3745
▁dataType	-11.3747
▁rect	-11.3747
emit	-11.3749
▁"&	-11.3753
▁users	-11.3756
readLong	-11.3757
sig	-11.3758
hasText	-11.3761
▁baos	-11.3762
▁WHERE	-11.3764
initialized	-11.3766
▁indicate	-11.3768
ClickListener	-11.3773
["	-11.3774
▁getFile	-11.3774
intersect	-11.3776
filters	-11.3776
XExpression	-11.3776
MOVE	-11.3783
Preparation	-11.3783
Capabilities	-11.3783
LANGUAGE	-11.3783
suppress	-11.3783
▁enough	-11.3783
▁equivalent	-11.3783
▁supplied	-11.3783
BODY	-11.3783
INSERT	-11.3783
AFTER	-11.3783
terminal	-11.3783
maven	-11.3784
▁how	-11.3784
Verification	-11.3784
Caption	-11.3784
Err	-11.3784
Self	-11.3784
▁handshake	-11.3785
▁Progress	-11.3785
hostname	-11.3786
▁lv	-11.3786
respond	-11.3787
Heap	-11.3787
▁reached	-11.3788
FullName	-11.3789
▁transformation	-11.379
ejb	-11.3791
millis	-11.3791
SIErrorException	-11.3792
QueryBuilder	-11.3796
basePath	-11.3798
▁batchSize	-11.3803
▁longer	-11.3803
[5]	-11.3804
▁ratio	-11.3808
Characters	-11.3809
▁resize	-11.3813
▁Select	-11.3815
sure	-11.3815
getModule	-11.3815
TypeArguments	-11.3817
Validity	-11.3819
▁sessionId	-11.3822
▁ldap	-11.3823
-8"));	-11.3825
Once	-11.3827
urn	-11.3828
getURI	-11.3828
ear	-11.3829
▁sheet	-11.3831
▁Converter	-11.3834
▁sig	-11.3838
setInt	-11.3838
▁taskId	-11.3847
quality	-11.3848
▁Scriptable	-11.3849
Perform	-11.3852
51	-11.3857
resourceName	-11.3858
ification	-11.3861
disable	-11.3862
ListItem	-11.3864
("#	-11.3869
mgr	-11.3869
sToRemove	-11.387
compose	-11.3872
▁Join	-11.3874
orderBy	-11.3875
findFirst	-11.3875
▁adding	-11.3876
RB	-11.3876
platform	-11.3876
authorization	-11.3877
delimiter	-11.3877
radius	-11.3877
cleanup	-11.3877
exchange	-11.3877
archive	-11.388
structure	-11.388
▁Conversion	-11.3881
▁streams	-11.3881
▁completion	-11.3887
▁modules	-11.3891
mix	-11.3891
addHeader	-11.3892
▁Bad	-11.3893
ATT	-11.3895
Hit	-11.3896
▁po	-11.3899
▁IAtomContainer	-11.3899
TION	-11.3901
▁Pool	-11.3907
▁utils	-11.3914
FX	-11.3917
SetException	-11.3918
pin	-11.3919
Inject	-11.3921
Coding	-11.3922
Question	-11.3924
ASCII	-11.3924
DEVICE	-11.3924
Decorator	-11.3924
POSITIVE	-11.3924
RUNNING	-11.3924
detach	-11.3924
Simulation	-11.3925
Quota	-11.3925
Accumulator	-11.3925
retain	-11.3926
▁Run	-11.3927
training	-11.3934
▁mem	-11.3935
csv	-11.3941
▁paramTypes	-11.3944
▁help	-11.3955
▁wave	-11.396
Logical	-11.396
trie	-11.3965
▁around	-11.3966
▁Generate	-11.3968
▁catalog	-11.3968
SSH	-11.3968
Interior	-11.397
InstanceId	-11.3972
CALL	-11.3976
▁Ap	-11.398
Views	-11.3982
PersistenceUnit	-11.3983
bp	-11.3984
nonce	-11.3985
zk	-11.3985
▁calc	-11.3985
▁encrypt	-11.3987
▁rpc	-11.3988
setup	-11.3988
created	-11.3992
▁retValue	-11.3996
MQ	-11.3997
rad	-11.3998
EXT	-11.3999
▁Link	-11.4001
Endpoints	-11.4002
shared	-11.4004
AP	-11.4007
▁allocate	-11.4007
CB	-11.4008
▁warning	-11.401
IPv	-11.4012
alert	-11.4015
▁hook	-11.402
catalog	-11.4023
▁heap	-11.4023
kernel	-11.4024
InstanceGroup	-11.4025
▁ab	-11.4025
▁gc	-11.403
adapter	-11.403
RDF	-11.4032
DBIDs	-11.4033
dx	-11.4033
master	-11.4033
writeLong	-11.4035
▁trim	-11.4039
▁datastore	-11.4042
throwable	-11.4042
▁SortedSet	-11.4044
Subscribe	-11.4045
▁logging	-11.4053
vars	-11.4054
▁accumulator	-11.4054
changed	-11.4056
Align	-11.4056
Criterion	-11.4058
/%	-11.4059
LOW	-11.4064
SecurityGroups	-11.4064
MARK	-11.4066
▁Auto	-11.4067
METRIC	-11.4067
Bridge	-11.4067
Destroy	-11.4067
Heartbeat	-11.4067
Historic	-11.4067
PRIVATE	-11.4067
Vertices	-11.4067
longitude	-11.4067
horizontal	-11.4067
Margin	-11.4067
Outcome	-11.4067
Durable	-11.4067
FETCH	-11.4067
AndReleaseTask	-11.4067
Pull	-11.4067
getVariable	-11.4067
▁Closeable	-11.407
NotSupported	-11.4071
▁revision	-11.4074
UpperBound	-11.4076
Soap	-11.4077
▁jsonGenerator	-11.4078
▁coordinate	-11.4078
▁ImmutableMap	-11.408
▁getParent	-11.408
▁Call	-11.4081
elementAt	-11.4089
▁rv	-11.4094
JCR	-11.4094
AutoCommit	-11.4098
Participant	-11.4101
Reading	-11.4102
INF	-11.4103
▁terms	-11.4107
▁GitLabApi	-11.4108
AndGet	-11.4111
▁fieldType	-11.4114
QName	-11.4115
Precision	-11.4115
JAR	-11.4116
Needed	-11.4116
▁Pointer	-11.4121
▁reload	-11.4123
ServiceReference	-11.4123
▁tran	-11.4127
▁MediaType	-11.4127
BlockSize	-11.4128
Predicates	-11.413
getNew	-11.4133
+1)	-11.4135
PID	-11.4138
DataPoint	-11.414
atoms	-11.4147
▁cookies	-11.415
▁buckets	-11.4158
train	-11.4158
DataOutputStream	-11.416
Big	-11.4161
▁pause	-11.4161
▁packages	-11.4163
▁guess	-11.4164
help	-11.4164
FT	-11.417
Assign	-11.4171
HtmlTag	-11.4173
getLeft	-11.4173
fetchBy	-11.4175
▁video	-11.4177
toURI	-11.4179
extra	-11.4179
getDisplayName	-11.4185
Attachments	-11.4185
plan	-11.4185
LEN	-11.4186
getScheme	-11.4186
marshal	-11.4188
sta	-11.4189
Phrase	-11.419
]*	-11.419
Adding	-11.4192
Fn	-11.4195
stage	-11.4197
Trust	-11.4198
80)	-11.4198
Compile	-11.42
getting	-11.42
initialValue	-11.4201
Series	-11.4205
▁sender	-11.4207
PropertyValue	-11.421
Messaging	-11.4211
Front	-11.4212
Console	-11.4212
Rotation	-11.4212
rvOrm	-11.4212
BINARY	-11.4212
Milliseconds	-11.4212
subtract	-11.4212
▁handling	-11.4212
UOW	-11.4212
Spliterator	-11.4212
Compatible	-11.4212
Calculator	-11.4213
WsByteBuffer	-11.4213
purge	-11.4213
Thing	-11.4214
subscribe	-11.422
decrypt	-11.4223
gml	-11.4223
ble	-11.4225
▁sys	-11.4225
InProgress	-11.423
character	-11.4231
▁metaData	-11.4233
rep	-11.4234
▁symbols	-11.4235
▁Compute	-11.4235
▁DATA	-11.4245
▁NOTE	-11.4246
Rectangle	-11.4255
MessageType	-11.4255
enum	-11.4257
displayName	-11.4261
▁blockSize	-11.4263
ArrayIndex	-11.4268
art	-11.4268
Pack	-11.4271
StartIndex	-11.4273
▁interpreter	-11.4276
("/"	-11.4276
compatible	-11.4277
fold	-11.4282
▁cx	-11.4283
rest	-11.4285
Indexable	-11.4288
▁QName	-11.429
▁dfs	-11.4291
getNodeName	-11.4292
▁converted	-11.4295
writeStart	-11.4296
None	-11.4304
▁accessor	-11.4306
lr	-11.4311
Cross	-11.4313
dispatch	-11.4316
FFFF	-11.4317
EJB	-11.4318
▁Network	-11.4322
upper	-11.4324
AtIndex	-11.4326
Keywords	-11.4327
]]	-11.4328
▁getUser	-11.433
▁outputFile	-11.4332
waitFor	-11.4333
▁byteBuffer	-11.4334
TypeEClass	-11.4335
▁sec	-11.4336
DM	-11.4344
▁interrupted	-11.4346
SAXException	-11.4346
RED	-11.4352
_1);	-11.4355
▁sourceFile	-11.4356
consistency	-11.4359
SCALE	-11.4359
truncate	-11.4359
Discard	-11.4359
storm	-11.4359
▁'\''	-11.4359
Verify	-11.436
NEWLINE	-11.436
Moment	-11.436
MessagingEngine	-11.436
EFERRED	-11.436
OrWhitespace	-11.4361
LOGICAL	-11.4361
CWSI	-11.4361
getCanonicalPath	-11.4365
▁restart	-11.4366
foo	-11.4367
Aliases	-11.4367
doclet	-11.4369
▁Xbase	-11.4371
}")	-11.4375
berOfObjectives	-11.4377
apiKey	-11.4378
ForTest	-11.4378
Union	-11.4379
async	-11.438
xen	-11.4382
▁leaf	-11.4384
▁getSession	-11.4384
▁patch	-11.4386
Crypto	-11.4386
▁admin	-11.4387
▁appendable	-11.4391
Directories	-11.4393
JobExecution	-11.4393
▁Flow	-11.4397
Rec	-11.4397
Sep	-11.4404
entering	-11.4413
▁ba	-11.4413
setTarget	-11.4414
▁pairs	-11.4416
▁norm	-11.4417
▁included	-11.4423
+1);	-11.4424
Generation	-11.4426
baseDir	-11.4427
▁adapt	-11.4427
▁"="	-11.4434
▁le	-11.4435
▁Unsupported	-11.4437
▁"0"	-11.4438
ipped	-11.4439
▁XPath	-11.4449
▁services	-11.4451
pk	-11.4452
▁OWL	-11.4454
▁sending	-11.4455
▁locked	-11.446
▁annotationType	-11.4465
BS	-11.4467
getDevice	-11.4469
▁fp	-11.4474
▁WebApplication	-11.4476
Promise	-11.4477
panel	-11.4477
▁sources	-11.4479
Outline	-11.4479
▁INode	-11.4479
Observable	-11.4479
pixel	-11.448
relative	-11.448
bitmap	-11.4485
Share	-11.4487
pd	-11.4487
▁tenant	-11.4493
seg	-11.4494
crypt	-11.4496
▁si	-11.4497
BC	-11.4498
Attach	-11.4498
▁td	-11.4502
deliver	-11.4503
DoubleVector	-11.4504
There	-11.4505
messaging	-11.4508
thrift	-11.4508
INITIAL	-11.4508
Mojo	-11.4508
STATIC	-11.4508
Business	-11.4508
Cassandra	-11.4508
SECURITY	-11.4508
BOUND	-11.4508
PROTOCOL	-11.4508
Skipped	-11.4508
Touch	-11.4508
Transient	-11.4509
Parm	-11.4509
▁JspException	-11.4511
FLOW	-11.4513
Analyzer	-11.4514
True	-11.4517
▁rotation	-11.452
▁executeList	-11.4524
/2	-11.4527
ToInt	-11.4527
SyntaxException	-11.4529
We	-11.4529
▁serial	-11.4529
VAR	-11.4532
VER	-11.4534
▁click	-11.4536
getMain	-11.4536
EntityId	-11.4537
▁unsetresource	-11.4538
RPC	-11.4539
mol	-11.4539
▁secret	-11.4542
▁wildcard	-11.4542
graphic	-11.4549
][0]	-11.455
▁getField	-11.4551
▁ByteBuf	-11.4552
▁HttpRequest	-11.4554
▁UIComponent	-11.4564
preview	-11.4579
Seed	-11.458
ln	-11.4581
▁endTime	-11.4582
rollback	-11.4584
crl	-11.4586
isInterface	-11.4589
ctor	-11.459
▁"1:	-11.4591
MA	-11.4592
▁ancestor	-11.4593
Pixels	-11.4596
outputDir	-11.4596
▁acl	-11.4598
ToLong	-11.4599
SourceFile	-11.4602
mot	-11.4605
Customer	-11.4606
▁Virtual	-11.4614
▁actions	-11.4617
retrieve	-11.4619
▁extend	-11.4628
Expiration	-11.4629
▁seg	-11.4633
CommerceOrder	-11.4633
AccountId	-11.4634
compress	-11.4634
setHeader	-11.4634
could	-11.4635
▁writing	-11.4635
(0.0	-11.4639
helper	-11.4643
MessageFormat	-11.4645
Detect	-11.4645
Square	-11.4647
executeUpdate	-11.465
▁dao	-11.4652
DefaultValue	-11.4655
▁gson	-11.4657
▁creation	-11.4657
▁3,	-11.4657
Paragraph	-11.466
Discriminator	-11.466
WEEK	-11.466
deprecation	-11.466
exclusive	-11.466
suggest	-11.466
▁multiplier	-11.466
Artwork	-11.466
TIMESTAMP	-11.466
▁initialization	-11.4661
Interaction	-11.4662
▁corresponding	-11.4663
CHANGED	-11.4664
ByResourceGroup	-11.4664
FieldDescriptor	-11.4667
▁MIN	-11.4668
commonspec	-11.4668
9:	-11.4669
Cnt	-11.4669
was	-11.4674
hdr	-11.4677
▁validator	-11.4681
addElement	-11.4682
TaskStatus	-11.4685
▁writeString	-11.4686
Too	-11.4688
▁plus	-11.469
▁minutes	-11.4692
▁clause	-11.4693
jcr	-11.4696
HttpServer	-11.4697
▁ready	-11.4703
▁oid	-11.4704
sendMessage	-11.4706
▁mVisitor	-11.4707
▁anno	-11.4709
▁There	-11.4712
▁persist	-11.4715
Normal	-11.4718
JavaClass	-11.4719
▁FieldInfo	-11.4721
mutation	-11.4724
TP	-11.4739
("-"	-11.4741
▁Injection	-11.4741
Round	-11.4743
▁OS	-11.4746
DefinitionId	-11.4746
NextOptions	-11.4746
getTransaction	-11.4751
OrBuilder	-11.4751
norm	-11.4751
timeZone	-11.4752
▁{@	-11.4754
▁FileWriter	-11.4757
▁stopped	-11.4757
entityType	-11.4761
▁statusCode	-11.4764
▁plain	-11.4771
▁mapped	-11.4772
▁neighbor	-11.4772
▁corner	-11.4777
allowed	-11.4779
JobId	-11.4781
getDomain	-11.4781
CM	-11.4782
NL	-11.4782
numBytes	-11.4782
generic	-11.4789
binary	-11.4792
literal	-11.4793
Instantiation	-11.4793
operator	-11.4794
concurrent	-11.4795
deleted	-11.4795
origin	-11.4795
Wildcard	-11.4797
OptionValue	-11.4799
Opcode	-11.48
▁pageContext	-11.4801
bucketName	-11.4806
declaring	-11.4806
TOP	-11.4809
▁SP	-11.4809
HealthCheck	-11.481
FACTOR	-11.4811
Compilation	-11.4813
Sketch	-11.4813
follow	-11.4813
Correct	-11.4813
Balance	-11.4814
ASCENDING	-11.4814
Descendant	-11.4814
Facade	-11.4814
▁appropriate	-11.4814
Tensor	-11.4814
propagate	-11.4814
Summaries	-11.4814
IMPORT	-11.4814
JDK	-11.4814
embed	-11.4814
LESS	-11.4815
▁buffered	-11.4815
HASH	-11.4815
srcOffset	-11.4815
Factories	-11.4816
kam	-11.4817
ErrorHandler	-11.4817
Dirty	-11.4817
({"	-11.4817
ATOR	-11.4819
blk	-11.482
JM	-11.4822
▁IP	-11.4823
▁Skip	-11.4823
▁absolute	-11.4826
▁decimal	-11.483
grpc	-11.483
tok	-11.4831
▁findAll	-11.4832
▁da	-11.4833
ipv	-11.4834
StrLen	-11.4834
▁oos	-11.4834
WebApp	-11.4835
▁runner	-11.4837
Pub	-11.4841
▁bp	-11.4843
Statistic	-11.4848
▁reserved	-11.4848
74	-11.4849
Configure	-11.4858
flag	-11.486
▁Persistence	-11.4863
REF	-11.4872
SitePath	-11.4872
userName	-11.4875
Namespaces	-11.4877
Frames	-11.4879
ToIndex	-11.4879
Warnings	-11.4879
getPackageName	-11.4881
ient	-11.4883
5:	-11.4891
hose	-11.4893
▁decoder	-11.4897
KeyPair	-11.4897
▁escaped	-11.4899
▁Unicode	-11.4899
PropertyKey	-11.4899
▁lambda	-11.4901
▁abort	-11.4901
▁association	-11.4902
Whitespace	-11.4906
aliases	-11.491
▁nm	-11.4916
cpu	-11.4916
EST	-11.4917
det	-11.4917
▁detail	-11.492
Placement	-11.4924
getPayload	-11.4927
ActionListener	-11.493
▁objectClass	-11.4931
▁Store	-11.4932
▁peek	-11.4932
▁6)	-11.4935
jobId	-11.4936
LogLevel	-11.4939
Ser	-11.4944
restore	-11.4946
PG	-11.4949
▁latest	-11.4951
▁10)	-11.4952
dimension	-11.4953
execution	-11.4953
StatusCode	-11.4954
cipher	-11.4955
modified	-11.4955
OPTION	-11.4961
vec	-11.4966
traverse	-11.497
Guard	-11.497
foreign	-11.497
SIGNATURE	-11.497
IfNecessary	-11.497
Longitude	-11.497
Power	-11.497
isotope	-11.497
occurrence	-11.497
Lexer	-11.497
▁Calculate	-11.497
▁modification	-11.497
trimmed	-11.497
Toolbar	-11.497
RandomAccessFile	-11.497
bookmark	-11.4971
BeanDefinition	-11.4971
struct	-11.4971
70	-11.4971
bool	-11.4971
▁treat	-11.4972
getColumns	-11.4972
RequestListener	-11.4976
Continue	-11.4976
▁SIConnection	-11.4977
96	-11.4979
getOutputStream	-11.4984
▁had	-11.4984
Editable	-11.4986
▁slash	-11.4988
deactivate	-11.4988
ValueExpression	-11.4992
INode	-11.4993
updated	-11.4993
prime	-11.4994
▁browser	-11.4999
setContext	-11.5005
▁'{}'",	-11.5007
▁care	-11.5008
InputFormat	-11.5009
SessionId	-11.5009
▁(%	-11.501
▁vec	-11.5011
need	-11.5013
Adj	-11.5014
▁beanName	-11.5015
Spans	-11.5023
▁FS	-11.5024
Rtf	-11.5027
Gregorian	-11.5029
▁analysis	-11.503
Iteration	-11.5032
▁Bits	-11.5033
Dom	-11.5036
▁EList	-11.5036
siteRoot	-11.5038
reaction	-11.5039
▁Dependency	-11.5043
trait	-11.5044
addLast	-11.5048
StatementBuilder	-11.5054
DeclaredMethod	-11.5058
ame	-11.506
▁rank	-11.5064
58	-11.5065
VersionRequest	-11.5066
tcp	-11.5066
▁cm	-11.5067
TextView	-11.5067
emptySet	-11.507
▁explicit	-11.5074
▁logic	-11.5074
▁40	-11.5075
▁XAException	-11.508
NAMES	-11.5081
▁Interval	-11.5085
▁Graphics	-11.5092
ComputeNode	-11.5094
Inf	-11.5094
MessageStore	-11.5096
getAsString	-11.5106
▁rate	-11.5108
Grouping	-11.5111
▁fr	-11.5114
Saml	-11.5116
family	-11.5117
▁Const	-11.5117
lhs	-11.5119
override	-11.5119
▁composite	-11.5119
fieldType	-11.512
▁ser	-11.5123
Google	-11.5124
▁pane	-11.5126
▁days	-11.5127
PrintStream	-11.5127
cols	-11.5128
Traversal	-11.5129
ESCAPE	-11.5129
Retries	-11.5129
implicit	-11.5129
Mismatch	-11.5129
NameValuePair	-11.5129
flatten	-11.5129
Performance	-11.5129
Failover	-11.5129
authority	-11.5129
▁probably	-11.513
margin	-11.513
▁END	-11.513
Markup	-11.513
CHARSET	-11.5131
▁JMSException	-11.5131
▁BORDER	-11.5131
▁raster	-11.5133
Scalar	-11.5133
TrustManager	-11.5133
setupDefault	-11.5136
▁InvalidArgument	-11.5137
Sys	-11.5141
▁broadcast	-11.5141
appear	-11.5145
outputStream	-11.5145
qualifiedName	-11.5146
Rfc	-11.5148
FTP	-11.515
▁parameterized	-11.515
▁git	-11.5151
▁cloned	-11.5157
▁producer	-11.5157
bus	-11.5158
getStringValue	-11.5161
Discover	-11.5162
Bonds	-11.5163
Xsd	-11.5163
ByteOrder	-11.5164
▁getConnection	-11.5164
ItemId	-11.5166
CRL	-11.5166
▁bonds	-11.517
10:	-11.517
registered	-11.517
getDuration	-11.5173
Sending	-11.5179
EventAttributes	-11.518
gp	-11.5181
▁bmd	-11.5182
▁Timestamp	-11.5189
▁getLogger	-11.5192
▁activate	-11.5193
permission	-11.5197
▁numRows	-11.5199
▁pk	-11.5211
PackageManager	-11.5213
▁checkFor	-11.5218
CUD	-11.5218
▁kill	-11.5219
▁getCms	-11.5224
ARG	-11.5225
getGeneric	-11.5226
▁Tile	-11.5227
periodInfo	-11.5228
▁vc	-11.5228
▁going	-11.5232
Objective	-11.5236
AA	-11.5237
rand	-11.5239
LogRecord	-11.5239
▁fit	-11.5241
matrixPosition	-11.5242
primary	-11.5242
workspace	-11.5245
Refs	-11.5246
▁ce	-11.5247
Tokenizer	-11.5248
appendChild	-11.5255
▁Composite	-11.5259
Descriptions	-11.5261
getNodeType	-11.5262
MainRecord	-11.5265
▁snmp	-11.527
COL	-11.5271
own	-11.5274
produce	-11.5275
Tracer	-11.5277
▁Sort	-11.5281
inject	-11.5281
getOriginal	-11.5282
ruleX	-11.5284
When	-11.5284
verbose	-11.5284
divide	-11.5284
Take	-11.5285
57	-11.5285
country	-11.5286
widget	-11.5286
*2	-11.5287
Suite	-11.5287
measure	-11.5289
reject	-11.529
built	-11.529
Ancestor	-11.529
Rollback	-11.529
Creating	-11.529
DESTINATION	-11.529
Frequency	-11.529
activation	-11.529
Benchmark	-11.529
alphabet	-11.529
visibility	-11.529
Like	-11.529
Vendor	-11.529
divisor	-11.529
Incoming	-11.529
REGEX	-11.529
Tooltip	-11.529
Docker	-11.529
gwt	-11.529
Jwt	-11.529
tango	-11.5291
Prediction	-11.5291
probability	-11.5292
LY	-11.5292
getChildNodes	-11.5295
Normalized	-11.5295
delivery	-11.5295
▁Modifier	-11.5297
▁hours	-11.5297
juli	-11.5297
Appendable	-11.5298
▁executeCreate	-11.5301
stylesheet	-11.5302
▁getString	-11.5302
▁des	-11.5303
swap	-11.5305
hide	-11.5306
▁thing	-11.5309
WebDriver	-11.5311
Linear	-11.5313
▁vars	-11.5316
imply	-11.5318
RATE	-11.5319
ima	-11.5321
▁vpn	-11.5324
Lang	-11.5324
▁wb	-11.5325
DAYS	-11.5328
▁StackTrace	-11.5332
UpdateParameters	-11.5333
JvmTypeReference	-11.5338
matched	-11.5339
▁findByC	-11.5343
▁ans	-11.5344
ItemStream	-11.5351
▁dependent	-11.5352
▁secure	-11.5353
▁deleteresources	-11.5354
▁procedure	-11.5354
▁anchor	-11.5359
addresses	-11.5364
acl	-11.5366
DBObject	-11.5366
docs	-11.5366
▁objectName	-11.5368
▁registryName	-11.5373
Qu	-11.5373
metrics	-11.5375
▁gradient	-11.5377
▁fe	-11.5378
getImage	-11.5381
▁isSet	-11.5382
gui	-11.5383
Transactional	-11.5393
▁LocalDateTime	-11.5396
▁pts	-11.5397
▁instant	-11.5402
▁JsonArray	-11.5406
▁resourceType	-11.5409
1/	-11.541
66	-11.5417
▁projection	-11.5419
Portal	-11.5424
Ping	-11.5425
ToBe	-11.5427
▁rename	-11.5427
Tok	-11.5428
ace	-11.5432
▁UnsupportedE	-11.5434
xid	-11.5445
getUnique	-11.5446
▁sr	-11.5448
enter	-11.5451
Until	-11.5453
license	-11.5453
kundera	-11.5454
SEARCH	-11.5454
ENGLISH	-11.5454
RoaringBitmap	-11.5454
categories	-11.5454
fieldStuff	-11.5454
▁carry	-11.5454
Nested	-11.5454
Strict	-11.5454
Small	-11.5454
Keras	-11.5454
▁ZipEntry	-11.5454
FFDC	-11.5454
▁very	-11.5455
branch	-11.5455
▁DateFormat	-11.5455
POINT	-11.5455
IfNeeded	-11.5455
cardinality	-11.5455
▁overflow	-11.5455
▁'9'	-11.5456
Light	-11.5456
Within	-11.5457
CProductId	-11.5457
Leading	-11.5457
saw	-11.5458
Serialized	-11.5459
Deploy	-11.5459
▁those	-11.5459
most	-11.5461
elt	-11.5462
OpenCms	-11.5463
inv	-11.5464
eal	-11.5468
▁implemented	-11.547
JarEntry	-11.5471
StateHandle	-11.5478
▁An	-11.5489
getTags	-11.5492
▁ct	-11.5493
IDENTITY	-11.5494
Ack	-11.5494
88	-11.5495
price	-11.5497
overlay	-11.5498
▁internalRequest	-11.5505
▁Html	-11.551
▁rd	-11.5511
FailureException	-11.5514
▁SVG	-11.5515
Afp	-11.5523
▁bw	-11.5524
Behaviors	-11.5525
readValue	-11.5526
isAbsolute	-11.5529
setLayout	-11.5529
▁desired	-11.5531
getAvailable	-11.5533
packageName	-11.5533
Fingerprint	-11.5534
tasks	-11.5534
OfDay	-11.5535
▁Cookie	-11.5536
▁newValues	-11.5545
▁ObjectMapper	-11.5545
getBlock	-11.5547
▁bindings	-11.5549
grammar	-11.5558
mat	-11.556
Stamp	-11.5561
win	-11.5563
Inst	-11.5567
ANT	-11.5572
ory	-11.5574
BACK	-11.5578
▁attach	-11.5581
contents	-11.5583
ingletonList	-11.5585
▁leave	-11.5588
▁txn	-11.5593
▁beanClass	-11.5594
CmsSearch	-11.5596
Bag	-11.56
▁CmsProperty	-11.5601
qualified	-11.5603
convertTo	-11.5603
PL	-11.5603
getSql	-11.5603
▁cclass	-11.5607
#"	-11.5611
stringValue	-11.5611
take	-11.5613
▁dm	-11.5614
▁Sarl	-11.5616
Streaming	-11.5618
86	-11.5618
Sarl	-11.562
Hdr	-11.562
LocalTime	-11.562
BIG	-11.562
Quantity	-11.5621
('\\'	-11.5621
Arithmetic	-11.5621
Cycle	-11.5621
Neighbour	-11.5621
Slave	-11.5621
▁everything	-11.5621
▁temporal	-11.5621
COMMAND	-11.5621
GAUGE	-11.5621
PROVIDER	-11.5621
inverse	-11.5621
drain	-11.5621
fatal	-11.5621
combine	-11.5621
buildingFunction	-11.5622
▁expired	-11.5622
▁Amazon	-11.5622
fixed	-11.5623
MeasureEClass	-11.5623
fullName	-11.5623
Provisioning	-11.5624
magic	-11.5624
Design	-11.5624
Unsafe	-11.5626
facesContext	-11.5627
▁verbose	-11.5627
typedArray	-11.5627
wise	-11.5628
jvm	-11.5631
▁DMatrix	-11.5631
unmarshal	-11.5634
▁backend	-11.5634
▁metaModel	-11.5635
▁getInt	-11.5635
(1000	-11.5638
TypeEnumEEnum	-11.5646
▁etc	-11.5647
seen	-11.5647
▁REST	-11.5648
setTitle	-11.5649
utc	-11.5653
getFields	-11.5653
▁"</	-11.5653
▁JsonToken	-11.5655
Try	-11.5658
Prob	-11.5659
▁guid	-11.566
Git	-11.5662
startIndex	-11.5663
▁virtual	-11.5667
normal	-11.5668
ProjectTask	-11.5668
1]	-11.567
eeName	-11.5676
LU	-11.5677
Costs	-11.568
getGeometry	-11.5681
Room	-11.5681
ManagedObject	-11.5683
ResourcePath	-11.5685
▁shadow	-11.5687
DST	-11.5687
processed	-11.5692
getProp	-11.5693
▁far	-11.5696
Original	-11.5696
▁bufferIndex	-11.5697
▁broker	-11.5703
▁CmsObject	-11.5706
400	-11.5708
mutations	-11.571
▁chunks	-11.5716
▁DBID	-11.5717
groupName	-11.5718
Letter	-11.5722
EList	-11.5729
wp	-11.573
▁locator	-11.5732
98	-11.5737
▁ArrayUtil	-11.5738
▁Determine	-11.5739
finderPath	-11.5739
lab	-11.5745
▁Geo	-11.5747
dtm	-11.5748
▁IR	-11.5749
▁replication	-11.575
keyspace	-11.5755
▁program	-11.5756
getPosition	-11.5763
▁excluded	-11.5769
DateFormat	-11.5772
EndOf	-11.5773
FileSize	-11.5774
▁queryBuilder	-11.5776
▁rgb	-11.5778
78	-11.5781
Watcher	-11.5782
Continuation	-11.5783
▁5)	-11.5783
▁unset	-11.5784
Alternative	-11.5786
Anchor	-11.5788
Gallery	-11.5789
▁?>>	-11.5789
Assessment	-11.579
Retention	-11.579
CUSTOM	-11.579
CommerceWishList	-11.579
Coverage	-11.579
campaign	-11.579
potential	-11.579
Ignoring	-11.579
PERSISTENT	-11.579
routine	-11.579
FUNCTION	-11.579
MEDIA	-11.579
pojo	-11.579
▁upperBound	-11.579
SOAP	-11.579
Team	-11.579
▁meth	-11.5791
VoltDB	-11.5791
▁el	-11.5792
pEntity	-11.5793
zz	-11.5794
rth	-11.5794
DATABASE	-11.5795
▁outside	-11.5796
▁classloader	-11.5796
Some	-11.5802
integer	-11.5802
InetAddress	-11.5803
CompanyId	-11.5804
Live	-11.5804
▁enumerator	-11.5806
tick	-11.5806
PrintWriter	-11.581
native	-11.5812
setLast	-11.5815
fld	-11.5817
▁beans	-11.5819
Inside	-11.5821
toInt	-11.5826
▁abs	-11.5827
Closeable	-11.5827
SecretKey	-11.5827
rgb	-11.5828
▁qr	-11.5832
▁supplier	-11.5833
▁unicode	-11.5833
getActivity	-11.5838
getLocalName	-11.5843
getProxy	-11.5846
Online	-11.5848
Outer	-11.585
Relationships	-11.5851
▁quality	-11.5852
Kam	-11.5854
▁artifactId	-11.5856
Steps	-11.5856
metaData	-11.5858
onSuccess	-11.5862
▁Grid	-11.5862
▁note	-11.5863
rev	-11.5867
portal	-11.5869
TypeDescriptor	-11.5872
▁Bitmap	-11.5872
resolver	-11.5878
Pin	-11.5878
RFC	-11.5879
tribut	-11.5885
▁comparison	-11.5887
▁cont	-11.5895
▁visited	-11.5897
▁'['	-11.5898
Chunks	-11.5898
ToRemove	-11.5898
:\	-11.59
Syn	-11.5909
▁enter	-11.5912
Matched	-11.5913
setLength	-11.5916
▁CR	-11.5917
▁dec	-11.5922
62	-11.5923
imageType	-11.5925
minus	-11.5925
▁wi	-11.5926
2]	-11.5928
Generics	-11.5928
47	-11.5928
▁grouping	-11.5931
vm	-11.5935
rewrite	-11.5938
Qualified	-11.5938
▁GrayF	-11.594
▁BYTE	-11.5947
\\\\	-11.5948
ules	-11.595
ProcessInstance	-11.5951
▁Joiner	-11.5954
JNDI	-11.5963
ActionPerformed	-11.5963
Major	-11.5963
pivot	-11.5963
INCLUDE	-11.5963
SHIFT	-11.5963
pRqVs	-11.5963
MODULE	-11.5963
Boot	-11.5963
▁'|'	-11.5963
(',');	-11.5963
camera	-11.5963
MtasSolr	-11.5963
shell	-11.5963
green	-11.5963
Stopwatch	-11.5963
8601	-11.5963
▁Big	-11.5963
▁good	-11.5963
Sense	-11.5963
Enter	-11.5963
Vault	-11.5965
intuit	-11.5966
soap	-11.5969
▁raf	-11.5969
▁feed	-11.5969
▁viewport	-11.5969
BinaryOperator	-11.5972
Sh	-11.5972
▁getData	-11.5975
bounds	-11.5975
prod	-11.5975
CN	-11.5975
achmentFileEntry	-11.5975
▁background	-11.5977
stride	-11.5977
Configured	-11.5978
Taglet	-11.598
criteria	-11.598
section	-11.598
logging	-11.598
precision	-11.5981
alpha	-11.5981
dynamic	-11.5981
tenant	-11.5981
▁Alluxio	-11.5982
portlet	-11.5984
createQuery	-11.5984
topology	-11.5984
▁subscribe	-11.5986
Iam	-11.5989
Proc	-11.599
geom	-11.5991
CmsUUID	-11.5992
dao	-11.5994
examples	-11.5994
▁GL	-11.5996
▁Promise	-11.5999
▁Debug	-11.6
68	-11.6002
▁JsonElement	-11.6002
theta	-11.6003
checkValid	-11.6006
▁RequestBuilder	-11.6008
ommerceWarehouse	-11.6009
("$	-11.601
▁sketch	-11.6013
cb	-11.6015
▁aggregate	-11.6017
▁placeholder	-11.6018
▁entityManager	-11.6021
▁listNext	-11.6022
▁nodeId	-11.6023
FIELDS	-11.6023
67	-11.6024
actor	-11.6024
▁coord	-11.6026
setIs	-11.6027
ProcessInfo	-11.6028
▁prior	-11.6031
Red	-11.6035
▁eventType	-11.6036
▁adaptor	-11.6037
▁issuer	-11.6042
HostName	-11.6043
derivX	-11.6045
og	-11.6048
tools	-11.6049
OAuth	-11.6049
flat	-11.6051
▁syntax	-11.6055
annotations	-11.6057
▁mime	-11.6058
Mime	-11.6061
ResourceRequest	-11.6064
▁fieldValue	-11.6065
▁intersection	-11.6068
unregister	-11.607
appendOptional	-11.6071
WithCode	-11.6073
▁card	-11.6073
▁Jenkins	-11.6073
▁writable	-11.6073
projects	-11.6074
DataSegment	-11.6075
WebSocket	-11.6079
COM	-11.6082
▁ci	-11.6086
▁sv	-11.6087
TableModel	-11.6095
:%	-11.6101
canonical	-11.6107
Tabs	-11.6107
getPrefix	-11.6115
▁align	-11.6118
arameterizedHost	-11.6118
Specs	-11.6119
Construction	-11.6126
Fleet	-11.6127
Certificates	-11.613
Motion	-11.6135
ftp	-11.6135
▁increase	-11.6136
Purchase	-11.6137
Regular	-11.6138
DECIMAL	-11.6138
IDENTIFIER	-11.6138
Quality	-11.6138
SKIP	-11.6138
Severity	-11.6138
distribution	-11.6138
▁further	-11.6138
average	-11.6138
FONT	-11.6138
Jingle	-11.6138
▁latch	-11.6138
vendor	-11.6138
BOX	-11.6138
+=	-11.6138
percent	-11.6139
deploy	-11.614
▁GeoPoint	-11.614
Inherited	-11.6141
centre	-11.6143
;}	-11.6144
Sym	-11.6146
▁compress	-11.6147
getAtomCount	-11.6148
▁atomContainer	-11.6149
]=	-11.615
certificate	-11.615
▁family	-11.6151
▁imageSearch	-11.6151
Launcher	-11.6151
GrayF	-11.6152
Localization	-11.6154
▁tagName	-11.6155
▁documents	-11.6159
aintenanceWindow	-11.6161
▁overwrite	-11.6161
▁objectMapper	-11.6161
acquire	-11.6161
Tri	-11.6162
▁views	-11.6162
WHERE	-11.6162
phase	-11.6162
War	-11.6163
Atlas	-11.6165
INDArray	-11.6167
tim	-11.6169
▁ticket	-11.6171
tagged	-11.6172
IllegalState	-11.6173
▁outline	-11.6173
finished	-11.6177
strip	-11.6179
errorcode	-11.6182
▁Concurrent	-11.6182
▁locate	-11.6186
▁keyType	-11.6195
RUN	-11.6196
best	-11.6197
▁world	-11.6199
▁pageSize	-11.6199
▁Ldap	-11.6204
JobStatus	-11.6205
Broadcast	-11.6205
▁keyStore	-11.6209
▁StrUtil	-11.6209
Defines	-11.621
▁Serialization	-11.621
▁getElement	-11.6212
▁tracker	-11.6226
Circle	-11.6227
▁href	-11.623
Trim	-11.6237
fect	-11.6238
parentOf	-11.6238
Spaces	-11.6239
▁dn	-11.6249
▁FileReader	-11.6251
▁DocumentBuilder	-11.6253
ative	-11.6253
vocab	-11.6253
XY	-11.6254
GE	-11.6257
89	-11.6258
rules	-11.6258
▁leading	-11.6261
▁addField	-11.6263
getMember	-11.6264
▁dev	-11.627
ZipFile	-11.6271
▁splits	-11.6276
▁pages	-11.6278
nb	-11.628
example	-11.6288
Gap	-11.6293
getColor	-11.6293
▁Audit	-11.6294
▁INVALID	-11.6296
▁cacheName	-11.6297
▁rp	-11.6298
EventHandler	-11.6302
▁24)	-11.6303
Attached	-11.6304
{1}	-11.6306
▁InputSource	-11.6314
parseDouble	-11.6315
▁represent	-11.6315
Stopped	-11.6316
Agreement	-11.6317
historic	-11.6317
CONTAINER	-11.6317
DIRECTORY	-11.6317
Lexicon	-11.6317
Translator	-11.6317
flickr	-11.6317
▁Ensure	-11.6317
SYNC	-11.6317
▁sense	-11.6317
Probability	-11.6317
▁Gson	-11.6317
Capability	-11.6317
Good	-11.6317
Concat	-11.6317
Stub	-11.6318
ConnectGateway	-11.6319
Charge	-11.6319
Installation	-11.632
mon	-11.6323
Mono	-11.6324
Markers	-11.6325
lineTo	-11.6328
▁LONG	-11.6329
▁defaultFlags	-11.6331
MAIN	-11.6332
WAS	-11.6332
uncompressed	-11.6333
OrNull	-11.6333
▁realm	-11.6338
▁colon	-11.6339
WARN	-11.634
attachment	-11.6342
▁poll	-11.6344
definition	-11.6345
AsLong	-11.6346
attach	-11.6346
negative	-11.6348
generator	-11.6348
Ovh	-11.6349
recovery	-11.6351
▁startup	-11.6352
▁Example	-11.6354
▁cross	-11.6356
aster	-11.6356
▁HttpSession	-11.6357
DatabaseType	-11.636
▁analyze	-11.6361
▁div	-11.6362
CmsWorkplace	-11.6364
Processed	-11.6366
FINER	-11.6368
▁Initialize	-11.6368
+1;	-11.637
▁Lazy	-11.6371
normalized	-11.6372
worker	-11.6376
tran	-11.6376
▁entityId	-11.6377
download	-11.6381
▁Chrono	-11.6382
Working	-11.6382
▁scopes	-11.6383
getSegment	-11.6383
parseBoolean	-11.6386
MetricName	-11.6388
▁---------	-11.6388
Mix	-11.6388
lineSeparator	-11.6395
▁getPath	-11.6397
▁gap	-11.6398
▁pref	-11.6399
▁regular	-11.64
77	-11.64
serviceEndpoint	-11.6401
AccountInner	-11.6407
members	-11.6407
errorMessage	-11.6419
▁callable	-11.6423
▁Named	-11.6427
▁contained	-11.643
lit	-11.643
SEC	-11.6435
den	-11.6435
oy	-11.6436
▁Closure	-11.6436
▁STATUS	-11.6437
copyFrom	-11.6442
▁quick	-11.6443
Offline	-11.6449
=").	-11.645
resourceId	-11.6456
toURL	-11.646
▁https	-11.6462
▁specification	-11.6465
InsnNode	-11.6466
alloc	-11.6466
getAnnotations	-11.6469
▁delim	-11.6469
▁imag	-11.6469
Rev	-11.647
▁pro	-11.6471
▁lazy	-11.6476
Modifiers	-11.6477
lin	-11.6477
▁Dimension	-11.6482
▁Subject	-11.6484
▁clusterName	-11.6485
Visit	-11.6486
▁inputA	-11.649
▁Any	-11.6494
▁blue	-11.6495
variableName	-11.6496
That	-11.6497
estimate	-11.6498
Tcp	-11.6498
Suppress	-11.6498
HORIZONTAL	-11.6498
NEGATIVE	-11.6498
▁separate	-11.6498
bridge	-11.6498
illegal	-11.6498
mandatory	-11.6498
Produces	-11.6498
▁exceed	-11.6498
front	-11.6498
suite	-11.6498
Footer	-11.6498
Either	-11.6499
severe	-11.6499
Percentage	-11.6499
Adjust	-11.6499
Workbook	-11.65
Cleanup	-11.65
evaluation	-11.65
speed	-11.65
inst	-11.65
▁RandomVariable	-11.6501
contact	-11.6505
▁Azure	-11.6505
Deep	-11.6505
▁locks	-11.6507
▁encrypted	-11.6512
▁executeDelete	-11.6513
Colon	-11.6514
▁getImage	-11.6515
▁pull	-11.6517
hasRemaining	-11.6521
Javadoc	-11.6522
Startup	-11.6526
▁queries	-11.6532
audit	-11.6536
indices	-11.6536
written	-11.6536
person	-11.6537
snapshot	-11.6537
▁dispatcher	-11.6537
attempt	-11.6537
▁modifier	-11.6538
▁gp	-11.6539
constant	-11.654
circuit	-11.6543
indent	-11.6547
▁pq	-11.6549
▁deep	-11.6549
Minute	-11.6554
setVisibility	-11.6555
mimeType	-11.6556
▁inst	-11.6556
▁disconnect	-11.6557
networkInterface	-11.6559
Building	-11.6561
ColumnNames	-11.6562
fax	-11.6564
▁dictionary	-11.6565
MODEL	-11.6565
▁EOFException	-11.6565
nodeId	-11.6566
▁cbuf	-11.6568
virtual	-11.6572
XA	-11.6573
▁"["	-11.6578
getCell	-11.658
▁issues	-11.658
▁orientation	-11.6584
CacheEntry	-11.6586
▁HttpClient	-11.6591
Submit	-11.6592
▁beta	-11.6599
buff	-11.6604
("["	-11.6605
▁bin	-11.6607
▁sd	-11.6613
▁roll	-11.6624
destOffset	-11.6624
▁statements	-11.6632
OLD	-11.6636
▁strict	-11.6638
▁attrName	-11.6641
started	-11.6642
dbName	-11.6645
▁decl	-11.6646
▁vertices	-11.6647
▁MBean	-11.6654
Always	-11.6658
intent	-11.6658
▁attributeValue	-11.6665
Persist	-11.6667
getPlugin	-11.6671
heckReturnValue	-11.6671
▁actor	-11.6674
▁mediaType	-11.6679
CmsDb	-11.6682
▁performance	-11.6682
ACTIVITY	-11.6684
World	-11.6684
Individual	-11.6684
Interpreter	-11.6684
UNIQUE	-11.6684
isWarnEnabled	-11.6684
latitude	-11.6684
Optimize	-11.6684
enumeration	-11.6684
Era	-11.6684
▁reflection	-11.6684
▁preferences	-11.6684
footer	-11.6684
Have	-11.6685
REQUIRED	-11.6685
mock	-11.6685
▁properly	-11.6685
Chat	-11.6687
Graphic	-11.6689
▁sm	-11.6692
DrawerItem	-11.6692
▁alignment	-11.6693
Viewer	-11.6694
Minimum	-11.6694
▁red	-11.6696
PoolSize	-11.67
▁keystore	-11.6702
Comments	-11.6703
GA	-11.6704
Acceptor	-11.6704
▁authenticate	-11.6706
DTD	-11.6708
CmsRole	-11.6708
SB	-11.6709
AccessControl	-11.671
▁entityMetadata	-11.6711
▁para	-11.6713
69	-11.6716
ZoneId	-11.6718
▁trust	-11.6718
Need	-11.6719
▁obs	-11.6721
wire	-11.6722
▁Iterate	-11.6723
▁patterns	-11.6724
transition	-11.6726
getScope	-11.6727
GVR	-11.6728
slice	-11.6728
video	-11.6728
instant	-11.6728
DEF	-11.6728
Comparable	-11.6729
usage	-11.6731
MESSAGES	-11.6732
Hold	-11.6735
FaxJob	-11.6735
WebApplication	-11.6737
ACK	-11.6739
setDescription	-11.6739
▁timezone	-11.674
▁itrans	-11.6744
▁toAdd	-11.6744
Triggers	-11.6748
ExecutionContext	-11.675
▁assigned	-11.6759
Scoped	-11.6764
MessageInfo	-11.6768
setOn	-11.677
▁Need	-11.677
getIdentity	-11.6775
▁jobs	-11.6776
▁resourceId	-11.6776
ItemRequest	-11.6777
targetClass	-11.6782
getActive	-11.6782
=0	-11.6786
▁marshaller	-11.6786
Associations	-11.6786
▁locations	-11.6787
isSelected	-11.6787
Extend	-11.679
▁appender	-11.6791
getBegin	-11.6792
▁7;	-11.6793
Relations	-11.6794
▁samples	-11.6795
▁grant	-11.6796
toMillis	-11.6805
ReturnCode	-11.6807
▁effective	-11.681
ResultInner	-11.6813
▁updateWith	-11.6813
05	-11.6814
Got	-11.6815
▁Portlet	-11.6815
getRight	-11.6817
componentType	-11.6823
issue	-11.6823
Quotes	-11.6825
readFile	-11.6827
setEntity	-11.6827
Restart	-11.6829
HA	-11.6832
▁conversation	-11.6833
▁combined	-11.6838
41	-11.6843
Recorder	-11.6848
Counters	-11.6848
▁std	-11.6848
▁bos	-11.685
jsp	-11.6853
queryParam	-11.6856
SuperClass	-11.6868
▁beginCreateOr	-11.6868
jarFile	-11.687
Ignored	-11.687
SocketChannel	-11.6872
aggregator	-11.6872
Occur	-11.6872
Termination	-11.6872
201809.	-11.6872
Apptentive	-11.6872
BACKGROUND	-11.6872
ByUuidAnd	-11.6872
Campaign	-11.6872
SYMBOL	-11.6872
Analytic	-11.6872
CAPACITY	-11.6872
Wrong	-11.6872
movie	-11.6872
▁whitespace	-11.6872
SHOW	-11.6872
▁Just	-11.6872
substitute	-11.6872
CANCEL	-11.6872
DOMAIN	-11.6872
CPInstanceUuid	-11.6873
BiFunction	-11.6873
ALTER	-11.6874
PubSub	-11.6874
Specified	-11.6874
▁whole	-11.6876
▁resolution	-11.6876
Receive	-11.6877
Planar	-11.6878
elab	-11.6879
▁When	-11.688
VOID	-11.6881
▁rnd	-11.6882
getStorage	-11.6883
Filtered	-11.6883
Folders	-11.6884
▁'>'	-11.6885
getAsJson	-11.6886
toPath	-11.6889
Pom	-11.6894
factories	-11.6895
OrDefault	-11.6898
81	-11.6899
Ptr	-11.6902
Datastream	-11.6903
▁workspaceName	-11.6904
Prototype	-11.6906
Checking	-11.6909
OutputFile	-11.691
PH	-11.691
getMetadata	-11.6911
▁jc	-11.6911
▁unexpected	-11.6911
Player	-11.6912
▁conv	-11.6915
▁DataSet	-11.6915
▁adGroup	-11.6918
translate	-11.6921
▁getChild	-11.6922
Signing	-11.6924
mapped	-11.6924
switch	-11.6926
Successful	-11.6927
TCP	-11.6929
editor	-11.6931
encrypt	-11.6932
fis	-11.6932
▁union	-11.6932
columnFamily	-11.6933
▁watch	-11.6933
▁upgrade	-11.6934
▁mp	-11.694
BundleContext	-11.6952
▁xid	-11.6954
DFS	-11.6955
("'"	-11.6958
▁executeUpdate	-11.6958
()-1)	-11.6961
▁pop	-11.6962
▁nextPage	-11.6962
getCanonical	-11.6963
▁cond	-11.6965
07	-11.6974
▁attached	-11.6975
qr	-11.6975
getComponentType	-11.6976
▁Malformed	-11.6982
▁dimension	-11.6985
ToMap	-11.6987
ModelImpl	-11.6987
Shadow	-11.6988
▁idle	-11.699
eol	-11.6993
Facebook	-11.6993
▁Nothing	-11.6994
▁BuildException	-11.6995
TableRow	-11.6995
Supplement	-11.7002
▁singleton	-11.7004
RenderingHints	-11.7006
▁{0}	-11.7006
ute	-11.7011
▁namespaces	-11.7013
unc	-11.7016
dataOffset	-11.7016
dec	-11.7019
nil	-11.7023
▁customer	-11.7023
seed	-11.7027
locations	-11.7037
▁parameterName	-11.7039
▁generics	-11.7042
live	-11.7043
73	-11.7043
Suggestion	-11.7044
successful	-11.7044
VC	-11.7058
Jawr	-11.7059
links	-11.706
▁related	-11.7061
Mongo	-11.7064
▁give	-11.7064
CONSTRUCTOR	-11.7065
POLICY	-11.7065
BEFORE	-11.7065
MULTI	-11.7065
three	-11.7065
Concurrency	-11.7065
▁moduleName	-11.7065
attack	-11.7065
THREAD	-11.7066
▁MessageFormat	-11.7066
liborPeriodIndex	-11.7066
▁infer	-11.7067
('=')	-11.7067
Printer	-11.7069
▁detector	-11.707
▁nn	-11.707
Chooser	-11.707
Domains	-11.7074
dfs	-11.7076
▁JPanel	-11.7077
Varargs	-11.7078
▁checkResult	-11.7081
▁findByG	-11.7083
▁letter	-11.7088
▁getContext	-11.7092
(1)=='	-11.7094
Thrown	-11.7094
entityClass	-11.7094
ModuleMetaData	-11.7095
▁proper	-11.7103
▁stackTrace	-11.7105
reversed	-11.7107
Negotiator	-11.7108
MBeanServer	-11.7109
▁rand	-11.711
▁queryParams	-11.7116
hp	-11.7118
png	-11.712
DBParam	-11.7121
Malformed	-11.7122
roll	-11.7123
klass	-11.7125
look	-11.7125
stub	-11.7125
maximum	-11.7126
wrapped	-11.7126
like	-11.7127
heap	-11.7127
CodePoint	-11.7128
getWindow	-11.7131
='"	-11.7132
WR	-11.7133
▁ft	-11.7136
RC	-11.7138
▁tip	-11.7139
spark	-11.7141
mbr	-11.7146
PP	-11.7151
getController	-11.7153
▁Platform	-11.7155
={	-11.7155
variables	-11.7155
XAException	-11.7159
openSession	-11.7159
Preferred	-11.716
getBuild	-11.7162
addMethod	-11.7162
▁vectors	-11.7167
▁supports	-11.7169
▁configFile	-11.7174
300	-11.7179
pat	-11.7179
ItemState	-11.718
area	-11.718
▁violation	-11.7182
StyleName	-11.7185
Than	-11.7188
Norm	-11.7189
Wrapped	-11.719
SEP	-11.7191
Subscriptions	-11.7192
PathElement	-11.7193
Cookies	-11.7195
Large	-11.7201
getQualifiedName	-11.7201
wrapper	-11.7204
AnnotationValue	-11.7205
▁dic	-11.7206
getEndpoint	-11.7209
▁dp	-11.7211
ency	-11.7217
▁3:	-11.7221
▁acquire	-11.7224
▁avail	-11.7225
ForResource	-11.7226
▁Scheduler	-11.7233
getWorkspace	-11.7233
QueryParameter	-11.7235
xf	-11.7237
▁My	-11.7239
OrThrow	-11.7243
RowCount	-11.7245
▁sf	-11.7249
Expectation	-11.7249
walk	-11.7255
▁feat	-11.7256
Clip	-11.7257
Suggest	-11.7259
▁ServletContext	-11.7259
ENTRY	-11.7261
Closing	-11.7261
Couchbase	-11.7261
Distinct	-11.7261
serializable	-11.7261
Attack	-11.7261
DECODABET	-11.7261
GLOBAL	-11.7261
INNER	-11.7261
Nucleotide	-11.7261
Pojo	-11.7261
Through	-11.7261
gamma	-11.7261
COMPONENT	-11.7261
Gaussian	-11.7261
Legacy	-11.7261
Stale	-11.7261
Catch	-11.7261
PASSWORD	-11.7261
foreground	-11.7261
▁beginning	-11.7261
mpxj	-11.7261
HALF	-11.7261
EXPORT	-11.7261
▁Canal	-11.7261
dManagerServices	-11.7261
Will	-11.7261
BioPAXElement	-11.7261
inspection	-11.7261
▁']'	-11.7262
Trait	-11.7263
Secondary	-11.7263
▁heartbeat	-11.7263
▁blank	-11.7263
▁steps	-11.7265
isInitialized	-11.7267
▁readObject	-11.7267
wsdl	-11.7268
IDE	-11.7268
Stylesheet	-11.7271
▁team	-11.7271
compressed	-11.7272
PropertyAccessor	-11.7274
▁py	-11.7275
perm	-11.7275
▁previously	-11.7277
RelativePath	-11.7277
authorizer	-11.7277
LogFile	-11.7278
Baseline	-11.728
GMT	-11.7281
▁classInfo	-11.7282
Interceptors	-11.7284
▁ui	-11.7285
JsonDeserializer	-11.7286
▁containing	-11.7288
▁pub	-11.7288
syslog	-11.7288
Authenticated	-11.7289
getByte	-11.7293
[6]	-11.7294
animate	-11.7294
DryRun	-11.7295
unable	-11.7295
▁blob	-11.7297
GroupInner	-11.7299
VarQueryParams	-11.7299
SU	-11.73
Rendered	-11.73
:1:	-11.7303
adjust	-11.7303
EntityRole	-11.7309
▁Hierarchical	-11.7311
IQ	-11.7311
▁individual	-11.7312
Alt	-11.7314
reason	-11.7314
RequestMapping	-11.7315
▁underlying	-11.7318
material	-11.7318
basisFunction	-11.732
predicates	-11.7326
duplicate	-11.7328
locator	-11.7328
tex	-11.7329
[{}]	-11.733
modify	-11.733
discard	-11.733
shard	-11.733
▁bc	-11.7331
haredPreferences	-11.7333
Consumes	-11.7333
extended	-11.7333
▁ParserException	-11.7334
>(){}	-11.7335
CommandClass	-11.7336
companyId	-11.7336
▁links	-11.7337
▁32)	-11.7338
signed	-11.7341
▁corpus	-11.7341
ResourceType	-11.735
production	-11.735
▁nfe	-11.7351
localized	-11.7358
%02	-11.736
COMPACT	-11.7361
▁pick	-11.7363
UserAgent	-11.7364
Aws	-11.7365
▁imported	-11.7365
▁instruction	-11.7367
sender	-11.7369
StartDate	-11.7377
Plugins	-11.7377
riplets	-11.7384
CmsUser	-11.7388
Hits	-11.7388
▁getConfig	-11.7389
▁compact	-11.7389
quot	-11.7391
▁DBException	-11.7393
▁getCache	-11.7401
▁major	-11.7406
ThreadContext	-11.7408
▁advance	-11.7409
eInverse	-11.7412
▁GVR	-11.7413
+1	-11.7413
▁cld	-11.7414
▁question	-11.7414
▁installed	-11.7414
lc	-11.7416
press	-11.7421
RecordOwner	-11.7429
▁Jinx	-11.7429
(3)	-11.7439
outBuff	-11.7444
bos	-11.7449
▁byteArray	-11.7452
DOWN	-11.7453
LogEntry	-11.7455
isSuccess	-11.7459
mission	-11.746
Effect	-11.746
DURATION	-11.7461
groovy	-11.7461
BUILD	-11.7461
ZonedDateTime	-11.7461
shuffle	-11.7461
Lemma	-11.7461
RoundingMode	-11.7461
concept	-11.7461
▁removing	-11.7461
Gauge	-11.7461
POOL	-11.7461
RENDER	-11.7461
dayOfWeek	-11.7461
polymer	-11.7461
Hyper	-11.7461
Latch	-11.7461
expiry	-11.7461
Formula	-11.7461
readFully	-11.7461
PublicIPAddress	-11.7461
PROXY	-11.7461
PKCS	-11.7461
Macro	-11.7461
computeIfAbsent	-11.7461
proceed	-11.7462
negate	-11.7462
▁license	-11.7462
SchedulerSupport	-11.7462
Chem	-11.7462
▁CDKException	-11.7462
SIMPLE	-11.7463
▁series	-11.7464
▁lineNumber	-11.7466
IpAddress	-11.7466
ano	-11.747
▁dialect	-11.747
▁'_'	-11.747
SecurityManager	-11.747
VALID	-11.747
▁exact	-11.7471
streamId	-11.7472
REQ	-11.7473
pw	-11.7474
yes	-11.7474
Painter	-11.748
createTempFile	-11.7481
▁Jdbc	-11.7483
checkstyle	-11.7487
TypeMirror	-11.7488
▁nls	-11.749
▁closeSession	-11.7491
HC	-11.7496
encryption	-11.7498
unsafe	-11.7501
PlanNode	-11.7504
tv	-11.7506
Dst	-11.7507
▁printer	-11.7507
ector	-11.751
gain	-11.7516
▁maxWidth	-11.7517
Merged	-11.7518
onCreate	-11.7518
srec	-11.752
getRandom	-11.7526
getActual	-11.7528
_8);	-11.7528
invert	-11.7531
Months	-11.7534
Timezone	-11.7534
OWL	-11.7535
resultSet	-11.7535
JDBC	-11.7536
▁apiKey	-11.7537
▁syn	-11.7537
drop	-11.7537
packet	-11.7538
expand	-11.7538
Hadoop	-11.7543
retval	-11.7544
replacement	-11.7545
▁failures	-11.7546
▁Should	-11.7547
sound	-11.755
▁BitSet	-11.7554
solve	-11.7554
▁scaled	-11.7556
milli	-11.7558
▁parallel	-11.756
mid	-11.7565
▁CommercePrice	-11.7566
IX	-11.757
lb	-11.7575
anno	-11.758
▁ctxt	-11.758
triple	-11.7581
▁propertyType	-11.7583
▁tempFile	-11.759
▁functions	-11.7592
180	-11.7593
Accessible	-11.7594
then	-11.7603
sendError	-11.761
COMP	-11.7611
ScrollPane	-11.7612
▁slice	-11.7617
▁Android	-11.7625
getDryRun	-11.7629
▁pixels	-11.7631
getEncoding	-11.7634
:{}	-11.7636
▁pipe	-11.7637
▁offer	-11.7641
▁spaceId	-11.7644
getJ	-11.7645
▁ServerException	-11.7649
MT	-11.7652
card	-11.7655
intercept	-11.7655
returnType	-11.766
ListUsageMetrics	-11.7665
PureXbase	-11.7665
ACCEPT	-11.7665
EXECUTION	-11.7665
LISTENER	-11.7665
Conflict	-11.7665
Ontology	-11.7665
commerceWishList	-11.7665
legacy	-11.7665
▁fully	-11.7665
github	-11.7665
ignoring	-11.7665
NUMERIC	-11.7665
decision	-11.7665
intensity	-11.7665
loadBalancer	-11.7665
Vertical	-11.7665
distinct	-11.7665
OBJ	-11.7665
TILE	-11.7665
OptionValueRel	-11.7665
Resp	-11.7665
Spring	-11.7666
Poly	-11.7666
synpred	-11.7666
▁compression	-11.7666
▁hard	-11.7667
getMaximum	-11.7667
MeasureSpec	-11.7667
▁Caster	-11.7667
MANAGER	-11.7667
Walker	-11.7668
mutate	-11.7669
▁classPK	-11.7669
Sound	-11.7671
▁correctly	-11.7671
▁appName	-11.7674
ScreenRecord	-11.7674
▁Google	-11.7675
btn	-11.7678
slide	-11.7681
LL	-11.7682
Couldn	-11.7682
▁molecule	-11.7684
docId	-11.7686
getAbsolute	-11.7695
▁superclass	-11.7701
createStatement	-11.7705
▁blocking	-11.7706
lon	-11.7707
▁resourcePath	-11.7709
▁refer	-11.7714
grad	-11.7716
▁machine	-11.7718
▁Unchecked	-11.7724
▁routing	-11.7724
LocalDateTime	-11.7728
ClientId	-11.7729
CmsReport	-11.773
lineNumber	-11.7731
ChildCount	-11.7736
IE	-11.7737
▁srcOffset	-11.7738
getSecond	-11.7739
▁console	-11.7739
▁strValue	-11.774
startTime	-11.7743
persist	-11.7749
grant	-11.7749
rank	-11.7749
▁executorService	-11.7751
▁maxValue	-11.7753
already	-11.7754
association	-11.7754
DevFailed	-11.7754
primitive	-11.7755
sink	-11.7757
Md	-11.7758
▁lon	-11.7758
▁skipped	-11.7761
IBM	-11.7761
▁iErrorCode	-11.7761
that	-11.7761
▁commandLine	-11.7762
spaceId	-11.7764
CmsEntity	-11.7766
▁vaultBaseUrl	-11.7767
fPresent	-11.7772
isSame	-11.7781
blocks	-11.7781
▁automa	-11.7784
▁Vec	-11.7786
▁JDBC	-11.7795
JsonArray	-11.7797
▁retries	-11.7804
attrs	-11.7807
caller	-11.781
clearCache	-11.781
▁capture	-11.7811
FromFile	-11.7819
▁rr	-11.7819
71	-11.782
addComponent	-11.7823
JA	-11.7823
theme	-11.7826
STM	-11.7829
▁units	-11.7841
▁maxSize	-11.7843
EQ	-11.7843
InUse	-11.7844
▁touch	-11.7847
IZE	-11.7847
getLock	-11.785
getReal	-11.7856
rawData	-11.7857
confirm	-11.7859
▁transpose	-11.787
health	-11.7872
LITERAL	-11.7873
CmsSelectWidget	-11.7873
MEMBER	-11.7873
BLANK	-11.7873
Verbose	-11.7873
ambiguous	-11.7873
benchmark	-11.7873
mojo	-11.7873
▁KNX	-11.7873
▁entire	-11.7873
SEQUENCE	-11.7873
sampling	-11.7873
LDAP	-11.7873
ListenableFuture	-11.7873
ajax	-11.7873
PatchBaseline	-11.7873
naming	-11.7873
STATEMENT	-11.7874
Overflow	-11.7874
REPORT	-11.7875
DetectionJob	-11.7875
Disable	-11.7876
▁'&'	-11.7876
▁against	-11.7876
soapModel	-11.7877
EXISTS	-11.7878
▁Flowable	-11.788
▁workUnit	-11.7882
Persisted	-11.7884
▁near	-11.7884
OPTIONS	-11.7886
PART	-11.7886
▁spaces	-11.7888
ChannelHandler	-11.7893
HtmlStyle	-11.7893
Swap	-11.7894
fileContent	-11.7896
WorkItem	-11.7896
HEX	-11.7898
handlers	-11.7898
reshape	-11.7901
StorageAccount	-11.7903
ParsingException	-11.7905
▁band	-11.7908
▁marked	-11.7909
▁commercePrice	-11.7909
+1,	-11.791
▁hm	-11.7911
▁diag	-11.7913
▁dstIndex	-11.7919
indicator	-11.7921
startElement	-11.7924
Waiter	-11.7925
Minor	-11.7929
Cells	-11.7932
TxId	-11.7933
▁optimize	-11.7935
tagName	-11.7939
▁drawer	-11.7941
kill	-11.7944
PathVariable	-11.7945
▁siteName	-11.7947
getScript	-11.7949
Candidates	-11.7952
AppService	-11.7953
▁geo	-11.7955
SEND	-11.7955
CRC	-11.7957
getSignature	-11.7957
INST	-11.7959
▁hierarchy	-11.7964
▁JsonNode	-11.7965
Cpo	-11.7965
dsl	-11.7966
▁payment	-11.7967
lambda	-11.7967
ancestor	-11.7967
abort	-11.7967
BufferedReader	-11.7968
][1]	-11.7968
▁rx	-11.797
$")	-11.7973
PageContext	-11.7975
CmsPublish	-11.798
cli	-11.7983
▁reconnect	-11.7987
Kill	-11.7991
getRawType	-11.7991
toJSON	-11.7992
▁unescape	-11.7993
currentValue	-11.7994
04	-11.7995
={}	-11.8001
▁";"	-11.8002
setUser	-11.8008
▁beanType	-11.801
Iterations	-11.801
Pause	-11.8011
progressListener	-11.8014
peer	-11.8026
nav	-11.8026
▁Except	-11.8029
attrName	-11.803
▁scene	-11.803
getTerm	-11.803
getGlobal	-11.803
recMessage	-11.8039
▁deploy	-11.8039
projectFile	-11.804
CmsRelation	-11.8042
PropertyDesc	-11.8043
trusted	-11.8043
localAddress	-11.8047
-----	-11.8048
Picker	-11.805
addItem	-11.805
Parsing	-11.8053
isActive	-11.8054
adj	-11.8059
ConnectionPool	-11.8066
▁Drools	-11.8066
HANDLE	-11.8067
OnError	-11.807
Encrypt	-11.8075
CHANGE	-11.808
ITY	-11.808
DocumentElement	-11.8081
Invoice	-11.8081
Detection	-11.8083
black	-11.8084
SUPPORTED	-11.8086
Billing	-11.8086
Applied	-11.8086
Kafka	-11.8086
Scenario	-11.8086
gateway	-11.8086
serialVersionUID	-11.8086
▁encountered	-11.8086
Sleep	-11.8086
Stereo	-11.8086
dummy	-11.8086
PERMISSION	-11.8086
guard	-11.8086
REMOTE	-11.8086
Plot	-11.8086
TENANT	-11.8086
tensor	-11.8086
▁navigation	-11.8086
ComboBox	-11.8086
DONT	-11.8086
TEMP	-11.8087
Zxid	-11.8087
ZooKeeper	-11.8089
Solr	-11.8089
Jmx	-11.8089
ENDPOINT	-11.809
Stem	-11.809
▁ECoordinate	-11.809
CFG	-11.8091
▁classifier	-11.8091
▁Se	-11.8091
▁divide	-11.8092
initiate	-11.8095
Trailing	-11.8095
addError	-11.8096
\">"	-11.8097
EditMode	-11.8097
▁resume	-11.8098
pred	-11.81
▁clip	-11.81
enqueue	-11.8101
tool	-11.8103
Offer	-11.8103
Imports	-11.811
AsInt	-11.8112
InfoInner	-11.8113
ForeignKey	-11.8118
▁looking	-11.8119
setScale	-11.8122
setBackground	-11.8124
faces	-11.8124
precondition	-11.8129
solr	-11.8129
LOCALE	-11.813
Included	-11.8134
Inverse	-11.8137
_2_	-11.8141
KV	-11.8145
hasOption	-11.8145
TypeSignature	-11.8151
▁overlap	-11.8156
Declared	-11.8156
newHashMap	-11.8158
▁transformed	-11.8169
Expire	-11.8169
adapt	-11.8178
ServerSocket	-11.8179
currency	-11.818
▁relations	-11.8181
Effective	-11.8182
▁Kernel	-11.8185
cross	-11.8186
ioe	-11.8186
isVisible	-11.8186
embedded	-11.8187
disconnect	-11.8188
problem	-11.8189
half	-11.819
possible	-11.819
Hostname	-11.8192
ommerceCountryId	-11.8193
InMemory	-11.8193
▁epoch	-11.8194
VFS	-11.8194
Plural	-11.8196
FormField	-11.8198
proto	-11.8199
▁prefs	-11.8202
collector	-11.8209
Trying	-11.8211
Statuses	-11.8214
▁classname	-11.8218
nodeList	-11.8219
TING	-11.8224
AES	-11.8226
Pad	-11.8228
OutputHandler	-11.8229
unset	-11.8229
▁successful	-11.8232
▁adjustment	-11.8232
crc	-11.8234
httpClient	-11.8234
1000	-11.8237
paint	-11.8238
▁expiration	-11.8243
TZ	-11.8253
JSONException	-11.8258
CmsProperty	-11.8258
999	-11.8268
▁signed	-11.8271
▁ZipFile	-11.8272
Mat	-11.8272
▁subset	-11.8273
▁3]	-11.8275
Fax	-11.8281
stants	-11.829
lowerBound	-11.8291
HeadName	-11.8297
NDArray	-11.83
Mtas	-11.8302
getPrimaryKey	-11.8302
RNA	-11.8303
sanitize	-11.8303
TRANSLATION	-11.8303
Consonant	-11.8303
Latitude	-11.8303
NOTIFICATION	-11.8303
relevant	-11.8303
toggle	-11.8303
Centroid	-11.8303
Deletion	-11.8303
Population	-11.8303
frequency	-11.8303
introspect	-11.8303
▁stuff	-11.8303
REGISTER	-11.8303
Detach	-11.8303
business	-11.8303
findViewById	-11.8303
residue	-11.8303
OJB	-11.8303
SPECIFICATION	-11.8303
Guild	-11.8303
▁chrono	-11.8303
!!!	-11.8303
LinearRing	-11.8304
claim	-11.8304
Interconnect	-11.8304
THAN	-11.8304
▁SSLContext	-11.8304
getInitParameter	-11.8305
▁anyway	-11.8305
▁XMPP	-11.8305
▁extent	-11.8306
Normalizer	-11.8308
Assignable	-11.8309
▁organization	-11.8309
FileChannel	-11.831
inherited	-11.8311
stroke	-11.8311
Derived	-11.8313
STARTED	-11.8313
ASN	-11.8315
▁QueryPos	-11.8317
OpenMode	-11.8318
putResult	-11.8319
getEncoded	-11.832
persistent	-11.8322
BITS	-11.8323
Fetcher	-11.8323
ard	-11.8323
▁digester	-11.8326
▁adjusted	-11.8328
timeStamp	-11.8328
getLastModified	-11.8335
▁"?"	-11.8337
decrement	-11.8338
setSource	-11.8346
ATTRIBUTES	-11.8347
JMX	-11.835
▁rdf	-11.8351
mse	-11.8351
▁dom	-11.8354
▁128	-11.8358
Ob	-11.8359
▁parms	-11.8362
LocalDate	-11.8366
DataFormat	-11.8373
▁deserializer	-11.8376
getNative	-11.8377
faxJob	-11.8379
Actual	-11.8379
▁blockLength	-11.8381
pref	-11.8387
SIG	-11.8388
▁overridden	-11.839
▁partitionId	-11.8395
setProject	-11.8397
Hive	-11.8397
▁Maven	-11.8398
Compute	-11.841
rectF	-11.841
getLineNumber	-11.8411
vaultBaseUrl	-11.8415
parallel	-11.8415
Maven	-11.8416
broker	-11.8416
transfer	-11.8417
minimum	-11.8417
fraction	-11.8417
Profiles	-11.8418
InstanceInfo	-11.8418
tokenizer	-11.8418
keep	-11.8419
basic	-11.8419
fit	-11.842
LoggerFactory	-11.8426
getIs	-11.8427
▁alternate	-11.8429
getAccess	-11.8431
getPortlet	-11.8431
Perm	-11.8432
RP	-11.8432
▁ordering	-11.8432
dns	-11.8434
▁conflict	-11.8436
▁startOffset	-11.8439
PU	-11.8439
ThreadLocal	-11.844
CAT	-11.8446
statusCode	-11.8447
ClientConfig	-11.8447
▁restriction	-11.8449
NewLine	-11.8449
getCustom	-11.845
▁xctxt	-11.8452
packages	-11.8452
Assembly	-11.8453
▁dirty	-11.8453
Seg	-11.8454
endOf	-11.8456
LocalVariable	-11.8458
▁stub	-11.8459
coordinates	-11.846
CommerceAddress	-11.846
ces	-11.8464
▁operand	-11.8474
minutes	-11.8474
PAR	-11.8475
Activate	-11.8481
SEG	-11.8483
▁deal	-11.8483
dense	-11.8489
▁rawType	-11.849
CORE	-11.849
getFieldName	-11.8493
got	-11.8503
SocketFactory	-11.8505
edges	-11.8511
blocking	-11.8513
Invalidate	-11.8514
suspend	-11.8516
Age	-11.852
lineno	-11.8522
DIRECT	-11.8524
FAIL	-11.8524
lemma	-11.8525
▁networkPipes	-11.8525
Acquire	-11.8525
BRACKET	-11.8525
Guacamole	-11.8525
deprecated	-11.8525
Handling	-11.8525
Knowledge	-11.8525
Mention	-11.8525
Repositories	-11.8525
SIBUuid	-11.8525
purpose	-11.8525
scenario	-11.8525
Drag	-11.8525
TRANSPORT	-11.8525
▁DecimalFormat	-11.8526
zrk	-11.8526
▁'\"'	-11.8526
eadUnsignedShort	-11.8526
SSLSocketFactory	-11.8526
ascii	-11.8526
REPLACE	-11.8526
JsHdr	-11.8527
Trail	-11.8528
▁explicitly	-11.8528
MENU	-11.8528
IdGenerator	-11.8529
derivY	-11.853
paragraph	-11.8531
Dict	-11.8531
GT	-11.8532
IZED	-11.8534
OpCode	-11.8535
Unix	-11.8536
▁asyncHandler	-11.8536
permissions	-11.854
▁analyzer	-11.8542
numOf	-11.8543
ListResultInner	-11.8543
XMLReader	-11.8544
generation	-11.8544
HANDLER	-11.8545
DataTable	-11.8546
▁sdf	-11.8546
Datatype	-11.8547
▁gold	-11.8547
reachable	-11.8552
Gui	-11.8552
oldValue	-11.8553
WeekDay	-11.8553
▁JComponent	-11.8555
Cli	-11.8557
crop	-11.8557
▁lifecycle	-11.8557
DocumentBuilder	-11.8557
DONE	-11.856
prov	-11.8561
▁ConcurrentHash	-11.8564
getSubject	-11.8568
Minus	-11.8568
Budget	-11.8569
▁serialization	-11.8569
Rendering	-11.857
getTopic	-11.8572
isLeaf	-11.8576
UniqueId	-11.8576
▁grow	-11.8585
TMP	-11.8587
geo	-11.8592
PD	-11.86
fireEvent	-11.8601
▁minValue	-11.8605
▁propertyKey	-11.8609
AttributeNames	-11.861
▁journal	-11.8615
▁certs	-11.862
"".	-11.8624
WRAP	-11.8624
SAX	-11.8627
Polling	-11.8633
Generate	-11.8637
▁plot	-11.8638
▁cacheResult	-11.8638
polygon	-11.8641
▁lowerBound	-11.8641
idle	-11.8642
▁computed	-11.8643
▁bDisplayOption	-11.8646
Signer	-11.8646
Kernel	-11.8648
implement	-11.8649
zoom	-11.865
must	-11.8651
onComplete	-11.8652
payment	-11.8653
▁-->	-11.8654
▁become	-11.8655
Includes	-11.8656
tionAccountName	-11.8656
tyleable	-11.8663
▁Hadoop	-11.8664
ResponseHandler	-11.8666
▁cred	-11.8669
▁general	-11.867
▁unwrap	-11.8675
▁alternative	-11.8676
erAccess	-11.8676
EXTRA	-11.8677
prepend	-11.8679
▁classNameId	-11.8682
▁constructors	-11.8683
days	-11.8684
BitSet	-11.8684
▁radix	-11.8685
going	-11.8687
oauth	-11.8691
▁writeTo	-11.8697
DefaultInstance	-11.8697
setStyle	-11.8697
perPage	-11.8699
RequestParam	-11.87
Prepared	-11.8702
SearchResults	-11.8707
Handled	-11.8715
▁abstract	-11.8717
▁dto	-11.8719
supports	-11.872
TypeLiteral	-11.8722
ErrorResponse	-11.8727
getFull	-11.8728
getPrimary	-11.8729
roduced	-11.8729
logback	-11.873
notEmpty	-11.8733
Workplace	-11.8733
newHashSet	-11.8735
commons	-11.8738
Slide	-11.8739
annotate	-11.874
▁ULocale	-11.875
▁dateFormat	-11.8751
DYNAMIC	-11.8753
Traffic	-11.8753
Appearance	-11.8753
SQUARE	-11.8753
policies	-11.8753
ALIAS	-11.8753
Audience	-11.8753
CREDENTIAL	-11.8753
fingerprint	-11.8753
▁alteredNode	-11.8753
BOTTOM	-11.8753
Explanation	-11.8753
PRIMARY	-11.8753
pseudo	-11.8753
termination	-11.8753
▁milliseconds	-11.8753
BUTTON	-11.8753
Evidence	-11.8753
migration	-11.8753
▁SshException	-11.8753
▁sibling	-11.8753
pretty	-11.8753
CELL	-11.8753
isErrorEnabled	-11.8753
getQPath	-11.8753
article	-11.8753
BIGINT	-11.8753
HELP	-11.8753
PLAIN	-11.8753
Colour	-11.8754
Most	-11.8755
DisplayName	-11.8755
▁GeoPackage	-11.8756
getLayout	-11.8756
resize	-11.8757
SETTINGS	-11.8757
TokenType	-11.8758
jpa	-11.8759
▁smaller	-11.8762
etrieveFromCache	-11.8762
getArguments	-11.8762
TimeSeries	-11.8764
CDI	-11.8764
▁dr	-11.8766
Way	-11.8769
absent	-11.877
logError	-11.8771
Expanded	-11.8771
getResourceId	-11.8776
addOption	-11.8777
CharAt	-11.8778
pan	-11.8779
▁focus	-11.8781
Cred	-11.8782
xpath	-11.8783
SUM	-11.8783
collDef	-11.8784
SECTION	-11.8786
beanName	-11.8792
wm	-11.8793
TaskAttempt	-11.8794
▁immediately	-11.8797
DateRange	-11.8801
SocketAddress	-11.8801
▁prep	-11.8802
Waiting	-11.8802
finer	-11.8803
▁reporter	-11.8803
uninstall	-11.8815
AsList	-11.8815
removeChild	-11.8824
▁mismatch	-11.8824
getSingle	-11.8828
2_0	-11.8828
Salt	-11.8831
ToWrite	-11.8832
startDate	-11.8834
Guid	-11.8836
isOpen	-11.8836
spanStart	-11.8837
hit	-11.8839
▁jsonConfig	-11.884
TableNames	-11.8841
getGroupId	-11.8841
CodeSource	-11.8848
OutputFormat	-11.8848
toBytes	-11.8855
ServletConfig	-11.886
INE	-11.8863
▁replaced	-11.8863
getErrorCode	-11.8867
▁decompress	-11.8869
ful	-11.8873
define	-11.8878
▁cri	-11.8879
itr	-11.888
Require	-11.8881
sentence	-11.8883
▁though	-11.8884
isNew	-11.8885
Should	-11.8886
anchor	-11.8887
rhs	-11.8891
▁nor	-11.8893
ItemData	-11.8893
checksum	-11.8894
pushObject	-11.8896
Concurrent	-11.8901
================	-11.8903
formatMessage	-11.8907
MC	-11.8907
LeafNode	-11.8915
tracker	-11.8916
Mixin	-11.8916
JobHandler	-11.8916
href	-11.8918
▁fout	-11.892
Oid	-11.8924
isPublic	-11.8926
getPublic	-11.8926
▁rsp	-11.8932
OutputPath	-11.8933
REL	-11.8934
08	-11.8939
▁neighbour	-11.894
ommerceOrderItem	-11.8943
▁ListOperation	-11.8945
▁enumConstant	-11.8951
getProfile	-11.8952
LineNumber	-11.8953
more	-11.8954
ServiceFuture	-11.8955
setLocation	-11.8956
ByKey	-11.8957
completed	-11.8958
▁hostName	-11.8961
Serialize	-11.8961
addCode	-11.8963
Company	-11.8967
▁rowKey	-11.8975
Analyze	-11.8976
▁observer	-11.898
fk	-11.8981
CONNECT	-11.8983
AREA	-11.8985
Deriv	-11.8985
DISTRIBUTION	-11.8985
INTERFACE	-11.8985
Occurrence	-11.8985
Residue	-11.8985
DEFINITION	-11.8985
QUEUE	-11.8985
Recipient	-11.8985
RecyclerView	-11.8985
Surrogate	-11.8985
phrase	-11.8985
prompt	-11.8985
▁bldr	-11.8985
Intensity	-11.8985
RANGE	-11.8985
asJena	-11.8985
parameterToPair	-11.8985
OWLAxiom	-11.8985
Allocation	-11.8985
('.',	-11.8985
Highlight	-11.8985
nanos	-11.8985
Emitter	-11.8986
money	-11.8986
ClientRequestId	-11.8986
▁'*'	-11.8986
▁aux	-11.8987
Nonce	-11.8989
PhysicalEntity	-11.8989
Protected	-11.899
▁htmltree	-11.899
tbn	-11.899
putLong	-11.899
UnknownHost	-11.8992
Training	-11.8992
Insertion	-11.8993
enforce	-11.8994
▁varName	-11.8995
Relational	-11.8995
▁miss	-11.8995
▁'+'	-11.8996
tan	-11.8996
TopLevel	-11.8998
▁bufferSize	-11.9
▁dateTime	-11.9
evaluator	-11.9003
▁superClass	-11.9003
Dead	-11.9003
▁usual	-11.9004
▁nice	-11.9004
unmodifiableMap	-11.9007
KNN	-11.9008
Aggregated	-11.9011
ImageBorder	-11.9012
RDD	-11.9015
cnt	-11.9017
del	-11.9022
listIterator	-11.9024
reserved	-11.9025
▁"1"	-11.9025
headerName	-11.9026
▁URLConnection	-11.903
SAXParser	-11.9031
tsdb	-11.9032
PartitionId	-11.9034
unpack	-11.9039
▁entityCache	-11.9043
separatorChar	-11.9045
conditional	-11.9049
setFont	-11.9052
weak	-11.9055
TaskListener	-11.9062
BatchStatus	-11.9062
setFill	-11.9065
isNotNull	-11.9066
RouteRequest	-11.9067
QueryResponse	-11.9069
EndTag	-11.907
ipAddress	-11.9071
declaration	-11.9072
codec	-11.9073
Serv	-11.9077
oad	-11.9081
permit	-11.9081
AdGroup	-11.9081
▁boundingBox	-11.9087
MetaClass	-11.9088
DNS	-11.909
getBinary	-11.9094
▁aggregation	-11.9095
getPref	-11.9097
currencyPair	-11.9101
TypeDeclaration	-11.9103
Initialize	-11.9106
EnumEEnum	-11.9108
StatusLine	-11.9108
▁declare	-11.9116
URLEncoder	-11.9116
▁sl	-11.9125
PropertyData	-11.9126
secure	-11.9131
aggregate	-11.9131
memory	-11.9132
comparator	-11.9132
dependent	-11.9132
stackSize	-11.9134
beta	-11.9136
▁toReturn	-11.9139
512	-11.9142
mount	-11.9143
▁directories	-11.9144
▁findByUuid	-11.9146
SimpleAntlr	-11.9149
strHTML	-11.9155
isDone	-11.9169
clock	-11.917
▁kv	-11.917
LB	-11.9173
JobInfo	-11.9176
nodeID	-11.9176
Foreign	-11.9182
ResourceManager	-11.9185
Iso	-11.9187
txn	-11.9191
Maintenance	-11.9192
primaryKey	-11.9195
Stroke	-11.9198
currentElement	-11.9201
ITE	-11.9208
▁mixin	-11.9214
HashSet	-11.9215
getPassword	-11.9215
pageContext	-11.9217
Exclusion	-11.9218
ConfigProperty	-11.9218
RegEx	-11.9219
getRows	-11.9221
ALLOW	-11.9223
Wiki	-11.9223
corpora	-11.9223
Axiom	-11.9223
determinant	-11.9223
Embeddable	-11.9223
Equivalent	-11.9223
Fluent	-11.9223
Introspector	-11.9223
Liberty	-11.9223
ROUND	-11.9223
THRESHOLD	-11.9223
audience	-11.9223
physical	-11.9223
▁according	-11.9223
▁cellSizeInDp	-11.9223
BATCH	-11.9223
Distributed	-11.9223
VARIABLE	-11.9223
ncluding	-11.9223
octet	-11.9223
Caching	-11.9223
Parallelism	-11.9223
▁blackHole	-11.9223
variance	-11.9223
Nearest	-11.9224
UDP	-11.9224
checkRequiredTag	-11.9224
FNC	-11.9224
▁pRequestData	-11.9224
ACCOUNT	-11.9224
Mesh	-11.9224
Instantiat	-11.9224
Cron	-11.9225
messagingEngine	-11.9225
RelativeLayout	-11.9225
Interest	-11.9226
MUL	-11.9228
threads	-11.9228
isInfinite	-11.9228
Skipping	-11.9229
▁styleClass	-11.9231
SCHEME	-11.9232
inline	-11.9233
ImmutableTerm	-11.9235
DroppedException	-11.9236
Slider	-11.9237
OrEmpty	-11.9238
MouseEvent	-11.9238
talResultSetSize	-11.9238
BlockingQueue	-11.9238
DomainName	-11.924
{}",	-11.924
EQUALS	-11.924
▁EnumSet	-11.924
Unlock	-11.9242
SiteInner	-11.9243
▁pathSegments	-11.9243
▁'='	-11.9243
CommerceRegion	-11.9244
▁DoubleMatrix	-11.9244
▁DataInputStream	-11.9245
getFileName	-11.9245
Lite	-11.9248
RPT	-11.9248
StartTag	-11.9248
snap	-11.9249
WildcardType	-11.925
Emit	-11.925
Review	-11.9251
strKey	-11.9252
Lab	-11.926
ResourceMetric	-11.9264
▁mass	-11.9274
setAt	-11.9279
maxAge	-11.9279
Degrees	-11.929
MG	-11.929
▁lc	-11.9291
ProviderInfo	-11.9292
LeftChild	-11.9299
Rename	-11.93
binder	-11.93
tempDir	-11.9302
RuleInner	-11.9302
fully	-11.9302
▁InvalidKey	-11.9302
javascript	-11.9303
▁isFirst	-11.9304
▁elapsed	-11.9319
▁formula	-11.9319
needs	-11.9321
keyPerson	-11.9322
▁linked	-11.9325
Skill	-11.9329
ColumnFamily	-11.933
▁retriev	-11.9331
▁sel	-11.9333
getContentType	-11.9335
CmsCategory	-11.9349
▁Datanode	-11.9358
months	-11.936
▁scaling	-11.9361
2.0	-11.9361
▁texture	-11.9361
CacheManager	-11.9363
watch	-11.9367
THIN	-11.9371
detect	-11.9373
ENABLE	-11.9373
264	-11.9374
DIV	-11.9375
which	-11.9383
world	-11.9383
background	-11.9383
analyze	-11.9388
HttpMessage	-11.9389
UIComponent	-11.939
amo	-11.9396
While	-11.9397
endTime	-11.94
ually	-11.9405
CRI	-11.9406
fromBytes	-11.9414
▁checkpoint	-11.942
Combine	-11.9421
organizationName	-11.9425
▁NodeUtil	-11.9431
▁inStream	-11.9436
visited	-11.9437
▁userInfo	-11.9438
▁facet	-11.9444
▁SIMP	-11.9444
getHostName	-11.9445
EndpointsRequest	-11.9446
endElement	-11.9454
////////////////	-11.9459
Keyspace	-11.9459
similar	-11.946
SipSession	-11.9461
MultiValue	-11.9462
Consume	-11.9463
exclusion	-11.9466
PLACE	-11.9466
Bitcoin	-11.9467
websphere	-11.9467
Delegation	-11.9467
experiment	-11.9467
CommerceShipping	-11.9467
DESCRIPTOR	-11.9467
Decision	-11.9467
STANDARD	-11.9467
Stanza	-11.9467
monomer	-11.9467
UNDEFINED	-11.9467
reactant	-11.9467
▁copied	-11.9467
OTHER	-11.9467
RETRY	-11.9467
MESSAGING	-11.9467
isAlive	-11.9467
▁having	-11.9467
LAYOUT	-11.9467
('0'	-11.9467
POD	-11.9467
hull	-11.9467
SCROLL	-11.9467
StudyMetadata	-11.9468
STEP	-11.9468
▁VoltType	-11.9469
▁caught	-11.9469
Webhook	-11.947
pReqVars	-11.947
▁bytesWritten	-11.947
WeakReference	-11.947
surface	-11.9471
▁classification	-11.9472
rethrow	-11.9472
jwt	-11.9474
SAML	-11.9474
CRLF	-11.9475
▁turn	-11.9477
CPRule	-11.9478
CPAtt	-11.9479
getFullName	-11.948
Deployed	-11.9482
jndiName	-11.9482
Finally	-11.9483
ToBytes	-11.9484
Cart	-11.9488
getInternal	-11.9488
Squared	-11.9488
StepExecution	-11.9491
▁timeInterval	-11.9492
JsonParser	-11.9493
▁timeUnit	-11.9495
UpdateObject	-11.9496
Savings	-11.9498
▁sslContext	-11.9498
Comm	-11.9501
getTimeZone	-11.9501
getProcess	-11.9502
Forest	-11.9507
hdfs	-11.9507
serial	-11.951
gzip	-11.9513
relationshipType	-11.9518
intern	-11.952
▁xy	-11.9521
▁listen	-11.9529
parseFloat	-11.9529
Monitored	-11.9535
▁doGet	-11.9536
PRINT	-11.9537
StackSize	-11.9538
ImageView	-11.9541
getCategory	-11.9548
▁pagination	-11.9548
isFull	-11.9553
checked	-11.9553
remoteAddress	-11.9556
ValidationResult	-11.9562
ChronoField	-11.9565
▁fetchByC	-11.9571
orderId	-11.9574
calc	-11.9578
▁getValues	-11.9581
▁remainder	-11.9591
getResults	-11.9592
serializer	-11.9595
RootPath	-11.9597
Installed	-11.9607
▁shortName	-11.9616
parameterName	-11.9629
Deserialization	-11.9631
ReturnValue	-11.9633
neighbor	-11.9635
upgrade	-11.9637
placeholder	-11.9637
registration	-11.9637
sigma	-11.9638
standard	-11.9638
BufferedImage	-11.9638
padding	-11.9639
kit	-11.964
popup	-11.964
(10,	-11.9642
signal	-11.9647
setMin	-11.9651
▁1][	-11.9651
getFS	-11.966
disabled	-11.9661
coll	-11.9664
Nd	-11.9667
fast	-11.9667
getFilename	-11.9669
configured	-11.9672
charCount	-11.9685
Mult	-11.9685
invalidate	-11.9688
BR	-11.9693
RootDir	-11.9697
poolId	-11.9698
ResponseWriter	-11.9701
▁executed	-11.9711
Else	-11.9712
CAP	-11.9714
InMs	-11.9715
Black	-11.9715
Overlap	-11.9717
DIGIT	-11.9717
dedicated	-11.9717
COOKIE	-11.9717
PIXEL	-11.9717
Trivial	-11.9717
capitalize	-11.9717
compilation	-11.9717
diagnostic	-11.9717
mechanism	-11.9717
spatial	-11.9717
translator	-11.9717
ABSTRACT	-11.9717
CHARACTER	-11.9717
Collapse	-11.9717
Denominator	-11.9717
Molecule	-11.9717
Spacing	-11.9717
discriminator	-11.9717
migrate	-11.9717
satisfied	-11.9717
▁improve	-11.9717
▁recurse	-11.9717
▁slave	-11.9717
▁macro	-11.9717
glyph	-11.9717
deferred	-11.9717
InternalEObject	-11.9717
Unmarshaller	-11.9717
BLACK	-11.9717
Netty	-11.9718
▁MDC	-11.9718
▁power	-11.9718
COLON	-11.9718
Compose	-11.9718
Recent	-11.9718
METADATA	-11.9719
MARKER	-11.9719
▁rtn	-11.972
▁allocation	-11.972
▁gather	-11.9721
COUNTER	-11.9723
Subsystem	-11.9723
spliterator	-11.9724
▁OvhOrder	-11.9724
PAY	-11.9724
getResourceUrl	-11.9724
Undefined	-11.9725
▁likely	-11.9725
ProfileRequest	-11.9725
DimFilter	-11.9726
FIX	-11.9727
alive	-11.9728
Symbolic	-11.9729
▁hack	-11.9729
workplace	-11.9729
Cleaner	-11.973
YES	-11.9731
esourceException	-11.9732
REST	-11.9736
InSeconds	-11.9738
Vfs	-11.9746
▁ColumnInfo	-11.9746
contract	-11.9748
▁argTypes	-11.9755
issues	-11.9757
appfw	-11.976
webapp	-11.9763
HashCode	-11.9765
▁Prc	-11.9766
ProgressListener	-11.9766
Gene	-11.9767
▁StreamResult	-11.9768
[]{"	-11.9769
▁CasWebflowCon	-11.9775
▁uv	-11.9775
("*")	-11.9778
▁synchronize	-11.9779
93	-11.9789
ReferenceCode	-11.9789
monitoring	-11.9795
PrimitiveType	-11.9801
Reducer	-11.9801
MultiPoint	-11.9803
getUuid	-11.9804
TextNode	-11.9808
credential	-11.9811
Requires	-11.9816
publicKey	-11.982
StrUtil	-11.9821
▁(;;)	-11.9827
()>0)	-11.9827
sock	-11.9839
beanId	-11.9844
PaddingException	-11.9846
Explorer	-11.9848
▁SIR	-11.9852
fromIndex	-11.9854
InstancesRequest	-11.9854
DateTimeZone	-11.9857
AutoScaling	-11.9871
Org	-11.9874
Consts	-11.9876
83	-11.9879
QueryParams	-11.988
exchangeService	-11.9882
present	-11.9892
assigned	-11.9897
launch	-11.9897
UserID	-11.9897
▁reuse	-11.9899
routing	-11.99
Unchecked	-11.99
ldap	-11.9902
timezone	-11.9903
either	-11.9903
FieldData	-11.9905
NullPointer	-11.9905
machine	-11.9907
ByteBuf	-11.9907
deep	-11.9908
currentChar	-11.9911
receiver	-11.9913
getTile	-11.9914
issuer	-11.9915
BeanO	-11.992
ICON	-11.9921
ThreadGroup	-11.9922
numerator	-11.9922
setFeature	-11.9924
Smi	-11.9926
WorkplaceManager	-11.9929
RuleSet	-11.994
Anim	-11.9948
attributeValue	-11.9948
getSettings	-11.9952
Logic	-11.9955
MessageImpl	-11.9966
CommonOp	-11.9967
▁moment	-11.9969
▁classDef	-11.9972
Thumbnail	-11.9973
Convention	-11.9974
Guaranteed	-11.9974
TOPOLOGY	-11.9974
DIGEST	-11.9974
Exponent	-11.9974
Jetty	-11.9974
OVERRIDE	-11.9974
REDUCE	-11.9974
Retain	-11.9974
Density	-11.9974
Lease	-11.9974
PARTITION	-11.9974
Snippet	-11.9974
sensitive	-11.9974
▁executing	-11.9974
Foreground	-11.9974
MISSING	-11.9974
Robot	-11.9974
coverage	-11.9974
proposal	-11.9974
quiet	-11.9974
rot	-11.9974
▁SecureRandom	-11.9974
CURLY	-11.9974
bdalib	-11.9974
PLUS	-11.9974
CPOptionCategory	-11.9974
▁'{'	-11.9974
lexerEngine	-11.9974
▁AstNode	-11.9974
Feedback	-11.9974
IoSession	-11.9974
quad	-11.9975
▁smallest	-11.9975
Sku	-11.9975
▁ScriptRuntime	-11.9975
PendingIntent	-11.9975
DISABLED	-11.9976
Incorrect	-11.9976
▁dayOfMonth	-11.9976
Doclet	-11.9979
▁But	-11.9979
PlayerSession	-11.9979
▁HttpPost	-11.998
firstChild	-11.9981
suspended	-11.9985
doFinal	-11.9986
PMeasurementUnit	-11.9987
UAL	-11.9988
CPD	-11.9991
▁beginUpdate	-11.9991
ByteChannel	-11.9996
▁prob	-11.9998
XmlGenerator	-11.9998
▁appl	-12
indexes	-12.0004
superClass	-12.0005
priv	-12.0006
Jpa	-12.0007
▁qName	-12.0007
Trade	-12.0007
CellStyle	-12.0009
Versioned	-12.0011
▁who	-12.0011
TaskTracker	-12.0013
ServiceCall	-12.0013
bmd	-12.0015
discount	-12.002
ZK	-12.0027
lz	-12.0029
CallExpression	-12.0031
▁formData	-12.0034
▁finalize	-12.0042
getLayer	-12.0044
getIts	-12.005
xFFFF	-12.0051
Escaped	-12.0052
localhost	-12.006
getColumnName	-12.0061
▁{0}"	-12.0061
canRead	-12.0061
Finding	-12.0064
▁headerValue	-12.0065
getSort	-12.0072
000000	-12.0075
tempFile	-12.0076
escaped	-12.0079
ClasspathElement	-12.0081
getHostAddress	-12.0083
xmlns	-12.0086
pom	-12.0095
GroupMembers	-12.01
UID	-12.0107
pro	-12.0108
Formatted	-12.0112
Expires	-12.0119
void	-12.0131
FileFilter	-12.0132
These	-12.0136
setWidth	-12.0142
prog	-12.0143
tachedKeyPersons	-12.0145
QueueEntry	-12.0145
OrEqual	-12.0156
VariableName	-12.0158
Claim	-12.0158
▁collectionName	-12.0167
setContentType	-12.0168
InstanceType	-12.0169
Hierarchical	-12.017
supplier	-12.017
unicode	-12.017
wave	-12.017
managed	-12.0171
difference	-12.0171
dependencies	-12.0172
createOrUpdate	-12.0172
when	-12.0172
evt	-12.0175
▁projectName	-12.0183
ready	-12.0184
ListAccountRel	-12.0185
▁Reflect	-12.0185
TLS	-12.0192
drawer	-12.0193
setAuto	-12.02
beanClass	-12.0203
getYear	-12.0206
onNext	-12.0209
▁Gitlab	-12.0211
terms	-12.0213
getMinimum	-12.0222
▁belong	-12.0228
bracket	-12.0234
spring	-12.0234
ayOfMonth	-12.0235
svg	-12.0235
Elastic	-12.0236
jaxb	-12.0237
Dense	-12.0237
Vulnerability	-12.0237
federated	-12.0237
OperatingSystem	-12.0237
participant	-12.0237
BUCKET	-12.0237
Communication	-12.0237
Hibernate	-12.0237
Inference	-12.0237
LessThan	-12.0237
STORAGE	-12.0237
Writing	-12.0237
anonymous	-12.0237
▁FIXME	-12.0237
Alphabet	-12.0237
Corpus	-12.0237
MAGIC	-12.0237
PUBLISH	-12.0237
Reached	-12.0237
Protection	-12.0237
Yaml	-12.0237
▁Quad	-12.0237
▁cw	-12.0237
ALPHA	-12.0237
WRONG	-12.0237
CONSTANT	-12.0237
TRIPLETS	-12.0237
Crud	-12.0237
EXIT	-12.0237
▁AtomicInteger	-12.0237
bank	-12.0237
elastic	-12.0238
IoBuffer	-12.0238
Svc	-12.024
Miss	-12.024
PolymerNotation	-12.0241
▁MutableBoolean	-12.0242
▁unless	-12.0243
feedback	-12.0245
CONF	-12.0245
transient	-12.0246
unmodifiableSet	-12.025
Combined	-12.0251
▁displayDate	-12.0253
SQLite	-12.0255
READY	-12.0255
NotAvailable	-12.0258
▁detected	-12.0258
▁expanded	-12.0258
deflate	-12.026
▁higher	-12.026
NET	-12.0262
SITE	-12.0263
▁inbound	-12.0265
HINT	-12.0268
chron	-12.0268
bins	-12.0271
OnClickListener	-12.0274
ChunkSize	-12.0274
Bounded	-12.0275
Released	-12.0276
Daemon	-12.0281
▁salt	-12.0281
_2=	-12.0285
logout	-12.0285
getPolymer	-12.0286
ForNull	-12.0288
▁nextIndex	-12.029
RootCause	-12.0293
objectClass	-12.0295
Documentation	-12.0296
StorePackage	-12.0297
GROUPS	-12.0298
getDefaultValue	-12.0305
recent	-12.0308
countDown	-12.0311
▁sur	-12.0323
]++	-12.0328
scheduled	-12.033
charge	-12.033
getContextPath	-12.0332
Converted	-12.0335
BytesRead	-12.0337
▁paramName	-12.0341
PDB	-12.0352
Proxies	-12.0358
▁injection	-12.036
ShortName	-12.0375
Recording	-12.0391
serialized	-12.0395
("\\."	-12.04
▁appendTo	-12.0408
800	-12.041
mmd	-12.041
propertyValue	-12.0411
cron	-12.0411
setIcon	-12.0416
getPrecision	-12.0416
semantic	-12.0417
WriteLock	-12.0418
statistics	-12.0424
ItemCount	-12.0424
arity	-12.0425
responseBody	-12.0428
Reconnect	-12.0432
joining	-12.0433
func	-12.0434
setLabel	-12.0438
floatValue	-12.044
▁iface	-12.0444
3_0	-12.0446
getPrevious	-12.0447
specific	-12.0448
clause	-12.0448
choice	-12.0449
since	-12.0452
Hea	-12.0453
serialization	-12.0454
webElement	-12.0457
interceptor	-12.0461
received	-12.0461
cpDefinition	-12.0464
DataInput	-12.0472
Rotate	-12.0476
Shards	-12.0479
union	-12.0482
ToSource	-12.0483
ServiceRef	-12.0488
scheduler	-12.0488
accessor	-12.0489
Calling	-12.0496
Recover	-12.0498
MIS	-12.05
ICAL	-12.05
▁offline	-12.05
▁streaming	-12.05
Confirm	-12.0502
recipient	-12.0504
Smooth	-12.0507
Activities	-12.0507
BASIC	-12.0507
FRAGMENT	-12.0507
Favorite	-12.0507
MASTER	-12.0507
Suspend	-12.0507
reservoir	-12.0507
Anonymous	-12.0507
Aromatic	-12.0507
ENDIAN	-12.0507
Introspection	-12.0507
Invitation	-12.0507
MEMORY	-12.0507
Synonym	-12.0507
UNSIGNED	-12.0507
corrupt	-12.0507
establish	-12.0507
getElementsByTag	-12.0507
outstanding	-12.0507
throttle	-12.0507
▁deletion	-12.0507
▁guarantee	-12.0507
Correlation	-12.0507
HOME	-12.0507
▁XtextPackage	-12.0507
MovieDbException	-12.0507
robot	-12.0507
Flux	-12.0507
dWordsServices	-12.0507
Presence	-12.0507
kryo	-12.0507
MUST	-12.0507
yyyy	-12.0507
Speed	-12.0507
▁ReflectionUtils	-12.0507
ASSIGN	-12.0508
CommerceShipment	-12.0508
Offerings	-12.0508
aaauser	-12.0508
nesting	-12.0508
umanSubjects	-12.0508
Iterate	-12.051
Later	-12.051
OOM	-12.0512
▁SMB	-12.0512
▁Let	-12.0512
▁hints	-12.0512
Permutation	-12.0512
▁incorrect	-12.0512
PropertyChange	-12.0516
ControlFlow	-12.0519
▁HttpGet	-12.0522
Locking	-12.0522
inspect	-12.0523
vote	-12.0523
highlight	-12.0524
▁LongTuple	-12.0524
▁CmsContainer	-12.0526
▁eventData	-12.0526
▁WComponent	-12.0526
▁HttpEntity	-12.0528
Assigned	-12.0528
guid	-12.0536
CmsContainerPage	-12.0538
FlowDefinition	-12.054
getColumnIndex	-12.054
DELETED	-12.0541
▁wasn	-12.0545
Cont	-12.0546
ToByteArray	-12.0548
clz	-12.0549
FeatureCall	-12.0554
Kit	-12.0554
explorer	-12.0554
CurrentProject	-12.0557
ARC	-12.056
CellValue	-12.0565
PrefixLength	-12.0568
setTransaction	-12.0568
loss	-12.0572
TimeStamp	-12.0574
▁chk	-12.0575
BigQuery	-12.0578
Saved	-12.058
Neighbors	-12.058
▁checkIf	-12.0585
Arch	-12.0591
proj	-12.0592
JobID	-12.0595
Viewport	-12.0595
("?")	-12.0597
freq	-12.0599
▁searcher	-12.06
DOC	-12.0604
▁bundleContext	-12.0604
CDATA	-12.0608
appName	-12.0609
removeAttribute	-12.0615
▁readFrom	-12.0617
rating	-12.0617
▁extracted	-12.0617
getInterfaces	-12.0621
▁operands	-12.0622
▁getCached	-12.0623
tasklet	-12.0623
createWidget	-12.0627
cycle	-12.0629
sys	-12.0631
Heading	-12.0631
CPOptionValue	-12.0635
isDigit	-12.064
Sampler	-12.0643
LoggingEvent	-12.0646
setActive	-12.065
Bool	-12.0654
LowerBound	-12.0656
▁sparse	-12.0659
setDuration	-12.0659
▁jms	-12.0659
lifecycle	-12.0666
▁360	-12.0669
▁neighbors	-12.0672
noise	-12.0672
SimpleName	-12.068
ummer	-12.0682
WaitTime	-12.0688
}\	-12.0688
Periodic	-12.0689
CommerceAccount	-12.0695
Exterior	-12.0699
readUTF	-12.0701
Misc	-12.0702
rib	-12.0708
serverConfig	-12.0713
ZoneOffset	-12.072
authenticate	-12.0722
getErrorMessage	-12.0727
increase	-12.0727
Polymer	-12.0728
operand	-12.0733
queries	-12.0733
diag	-12.0734
browser	-12.0734
ticket	-12.0734
blob	-12.0734
click	-12.0734
behavior	-12.0735
patch	-12.0736
127	-12.0736
leaf	-12.0738
unexpected	-12.0739
obtain	-12.0739
vpn	-12.0747
visitor	-12.0748
lum	-12.0751
cfg	-12.0756
Scaling	-12.0757
servletContext	-12.0758
derive	-12.0766
▁dataBuffer	-12.0766
datastore	-12.0766
onClose	-12.0767
Targeting	-12.077
KeyGenerator	-12.0771
setUse	-12.0773
128	-12.0778
Inode	-12.0779
ERA	-12.0781
executable	-12.0784
Affinity	-12.0785
INVOKE	-12.0785
Evaluate	-12.0785
Experiment	-12.0785
QueryNotices	-12.0785
AUTHENTICATION	-12.0785
COMMIT	-12.0785
Coordinator	-12.0785
REVERSE	-12.0785
SLASH	-12.0785
VERTICAL	-12.0785
Album	-12.0785
Article	-12.0785
Eviction	-12.0785
Mount	-12.0785
Octet	-12.0785
misExtensionType	-12.0785
yield	-12.0785
Denied	-12.0785
PROGRESS	-12.0785
Scheduling	-12.0785
denominator	-12.0785
inventory	-12.0785
Movie	-12.0785
polyline	-12.0785
▁ledger	-12.0785
AVIM	-12.0785
▁Jdk	-12.0785
ifModifiedSince	-12.0785
▁much	-12.0785
Board	-12.0785
CmsPermissionSet	-12.0785
nvoking	-12.0785
CoreSPI	-12.0785
getStructureId	-12.0785
JavaFileObject	-12.0786
sizeInBytes	-12.0786
%1$	-12.0786
mongo	-12.0786
Outgoing	-12.0786
▁cnx	-12.0786
LOWER	-12.0787
outcome	-12.0787
▁agg	-12.0787
itsId	-12.0788
SCAN	-12.0788
Extraction	-12.0788
producer	-12.079
docker	-12.079
JCTree	-12.0792
Compressed	-12.0792
Provided	-12.0794
ntk	-12.0797
DDF	-12.0797
bill	-12.0798
Warn	-12.0798
getPageSize	-12.0798
SelectEClass	-12.0801
saved	-12.0801
▁basicSet	-12.0801
Equality	-12.0802
▁parentScreen	-12.0803
neededFields	-12.0806
implies	-12.081
▁EChange	-12.081
Synchronized	-12.0814
setStroke	-12.0815
nio	-12.0815
Quoted	-12.0815
▁assertion	-12.0818
[8]	-12.0818
udf	-12.0821
oAuth	-12.0824
authorize	-12.0825
TimeOfDay	-12.0827
readerIndex	-12.0835
errorMsg	-12.0836
bad	-12.0838
▁atomic	-12.0838
dic	-12.0838
▁forced	-12.0841
▁extractor	-12.0842
TaskState	-12.0845
ValuesHolder	-12.0846
DBCluster	-12.0846
writeLine	-12.0852
curve	-12.0853
urlEncode	-12.0856
gisteredService	-12.0856
▁come	-12.0858
scanResult	-12.0865
Validating	-12.0865
▁48	-12.087
blocked	-12.0872
')||(	-12.0873
RelationshipType	-12.0875
HH	-12.0877
JsonValue	-12.0885
SEQ	-12.0888
cst	-12.0896
FILES	-12.09
125	-12.0902
▁slow	-12.0907
isRunning	-12.091
JobBuilder	-12.0914
PropertiesInner	-12.0919
PREF	-12.0919
▁sourceMethod	-12.0925
fade	-12.0934
ratio	-12.0935
requires	-12.0939
CMA	-12.0939
readAll	-12.0939
FactoryBean	-12.0963
Leader	-12.0963
getStatic	-12.0969
ContentHandler	-12.0974
▁providerInfo	-12.0984
modifier	-12.0988
para	-12.099
BucketName	-12.0998
UniqueID	-12.1
srcFile	-12.1002
ersistenceBroker	-12.101
Excluded	-12.101
NoResponse	-12.1012
Circuit	-12.1015
Associate	-12.1016
pooled	-12.1019
CreateObject	-12.1022
hasPermission	-12.1025
known	-12.1025
relationship	-12.1026
AGE	-12.1026
holder	-12.1028
runner	-12.1028
runnable	-12.1028
ommerceOrderNote	-12.1032
decimal	-12.1032
dispatcher	-12.1043
big	-12.1045
FileStore	-12.1048
▁addition	-12.1049
getOptionValue	-12.1053
synchronous	-12.1054
but	-12.1055
▁JBBP	-12.1059
inherit	-12.1059
blockLength	-12.106
Own	-12.1063
Interleaved	-12.1064
Configurable	-12.107
Mechanism	-12.107
201808.	-12.1071
CmsVaadin	-12.1071
SPECIAL	-12.1071
reservation	-12.1071
XmlPullParser	-12.1071
bAddQuotes	-12.1071
prolepticYear	-12.1071
▁labAccountName	-12.1071
Backpressure	-12.1071
COLLECTION	-12.1071
HIGH	-12.1071
PLUGIN	-12.1071
stereo	-12.1071
study	-12.1071
▁CountDownLatch	-12.1071
▁affect	-12.1071
EXPIRATION	-12.1071
severity	-12.1071
Tomcat	-12.1071
▁applied	-12.1071
micro	-12.1071
▁vmScaleSetName	-12.1071
Given	-12.1071
Avro	-12.1071
CONCURRENT	-12.1071
Verifier	-12.1071
('>'	-12.1071
capability	-12.1071
Controllable	-12.1071
FixedOptionRel	-12.1071
Blur	-12.1071
▁terminated	-12.1071
setConstraintMax	-12.1072
instrumentation	-12.1072
Nonnegative	-12.1072
saml	-12.1072
▁findByGroupId	-12.1072
Hide	-12.1072
(';'	-12.1072
▁GBS	-12.1072
▁lowest	-12.1072
netty	-12.1072
IsolationLevel	-12.1072
▁representation	-12.1073
Whitelist	-12.1073
▁highest	-12.1073
▁exactly	-12.1073
TAB	-12.1077
setBorder	-12.1077
goog	-12.1079
HMAC	-12.1079
▁tries	-12.108
QueryParameters	-12.1081
JavaMember	-12.1082
Radi	-12.1082
▁Bbox	-12.1082
/2.0	-12.1082
jmx	-12.1083
404	-12.1084
DDL	-12.1084
▁extraction	-12.1084
decompose	-12.1087
[7]	-12.1092
limitidentifier	-12.1093
getColumnCount	-12.1095
Intern	-12.1096
Streamlet	-12.1099
▁minMax	-12.1099
getLocalHost	-12.1099
ReadTimeout	-12.11
Neg	-12.11
▁displayed	-12.11
INDENT	-12.1104
ERC	-12.1109
▁CmsLock	-12.111
AsDouble	-12.111
RESOURCES	-12.1111
toExternal	-12.1111
Maker	-12.1115
SCORE	-12.1119
Compliance	-12.1121
setConstraint	-12.1122
CPU	-12.1123
appflow	-12.1125
ExternalContext	-12.1128
AttributeSet	-12.1129
JobConf	-12.1133
GatewayName	-12.1135
tableDef	-12.1138
ServletPath	-12.1143
dateStr	-12.1144
codepoint	-12.1148
PGP	-12.1153
writeShort	-12.1159
Fold	-12.1163
rawType	-12.1166
ENUM	-12.1166
Joinable	-12.1169
▁secs	-12.117
SPI	-12.1171
UINT	-12.1171
bufferSize	-12.1172
▁startPos	-12.1178
currentWord	-12.1179
getJobID	-12.1179
XPATH	-12.1189
decl	-12.119
nnectedException	-12.1191
CmsHistory	-12.1193
setBody	-12.1194
excluded	-12.1195
OU	-12.1197
Tld	-12.1198
outputFile	-12.1202
RecoveryPoint	-12.1205
▁NotCo	-12.1206
getBool	-12.1208
JsonNode	-12.1211
jobSpec	-12.1213
Enclosing	-12.1221
SortOrder	-12.1224
ItsId	-12.123
support	-12.1232
ToCheck	-12.1232
exist	-12.124
dateTime	-12.1249
receive	-12.1254
RAW	-12.126
tip	-12.1263
readFields	-12.1267
▁processInstance	-12.1271
Searcher	-12.128
Stateful	-12.13
absolutePath	-12.1307
ordered	-12.1309
findOne	-12.1311
TableMetadata	-12.1328
revision	-12.1329
▁deleteresource	-12.133
slash	-12.133
Alluxio	-12.1331
positive	-12.1331
letter	-12.1332
nextDouble	-12.1333
small	-12.1333
pull	-12.1335
StateChange	-12.1338
arrow	-12.134
Azure	-12.1341
annotated	-12.1345
anim	-12.1347
▁Datagram	-12.1348
bytesRead	-12.1349
Superclass	-12.135
Allocate	-12.1352
fontSize	-12.136
loaded	-12.1361
EXTENDED	-12.1365
▁aktMemo	-12.1365
Authenticator	-12.1365
DoesNotExist	-12.1365
ENGINE	-12.1365
Exceeded	-12.1365
Identifiable	-12.1365
Skeleton	-12.1365
Social	-12.1365
▁diagram	-12.1365
Rollout	-12.1365
correlationId	-12.1365
inclusive	-12.1365
▁changing	-12.1365
Sequential	-12.1365
jobFlowInstances	-12.1365
Swagger	-12.1365
TiffTags	-12.1365
numCoords	-12.1365
collapse	-12.1365
mitiveInvalidity	-12.1365
▁BusPr	-12.1365
▁mouse	-12.1365
STACK	-12.1365
Bookmark	-12.1365
▁traverser	-12.1365
▁predicted	-12.1365
Committed	-12.1366
POSITE	-12.1366
glob	-12.1366
revoke	-12.1366
CompilationUnit	-12.1367
Drawer	-12.1367
Rich	-12.1369
Rejected	-12.137
▁ValueComparator	-12.1371
extend	-12.1371
DAV	-12.1372
Storm	-12.1372
Unary	-12.1373
ganizationalUnit	-12.1373
JobInner	-12.1373
▁wrt	-12.1374
ZoomLevel	-12.1374
drag	-12.1376
QUALITY	-12.1376
XSLT	-12.1376
cost	-12.1377
spinner	-12.1378
Encrypted	-12.1379
▁messageDigest	-12.1384
▁larger	-12.1385
weeks	-12.1385
▁IntStream	-12.1385
CompositeNode	-12.1392
ipaddress	-12.1393
Granted	-12.1393
SPARSE	-12.1395
▁THE	-12.1398
sCharacterId	-12.1399
Gate	-12.1399
▁made	-12.1406
FileExtension	-12.1407
DocTree	-12.1407
interaction	-12.1409
▁srv	-12.1409
aligned	-12.141
raid	-12.1411
subscriber	-12.1412
markup	-12.1413
Ou	-12.1413
storeName	-12.1416
keywords	-12.1416
RightChild	-12.1417
JWT	-12.142
▁httpResponse	-12.142
Freq	-12.1423
May	-12.1428
srcMem	-12.1429
RunState	-12.1431
CharArray	-12.1432
DeletedKey	-12.1434
▁')'	-12.1437
GeometryIndex	-12.1446
▁argout	-12.1448
▁moved	-12.1456
ToUse	-12.1458
▁expectedValue	-12.146
getWrapped	-12.1472
stem	-12.1472
bitCount	-12.1473
CmsGroup	-12.1473
rightChild	-12.1473
▁OvhTask	-12.149
▁repositoryName	-12.149
▁maxY	-12.1508
Permit	-12.151
▁complex	-12.151
spanEnd	-12.1513
▁maxLength	-12.1516
LET	-12.1522
▁tau	-12.1524
subnet	-12.1524
anConsume	-12.1529
lationalDatabase	-12.1533
readEntity	-12.1541
mapWidget	-12.1544
▁genericType	-12.1547
Cond	-12.1551
topLevel	-12.1556
Caused	-12.1558
("]"	-12.1562
▁'%'	-12.1567
Jid	-12.157
IES	-12.1578
EndpointInfo	-12.1579
****************	-12.1588
Mill	-12.1594
▁authenticated	-12.1595
mdc	-12.1619
zipFile	-12.162
MachineScaleSet	-12.1627
Reaction	-12.1633
Bl	-12.1634
trust	-12.1637
rowJ	-12.1643
GroupMember	-12.1643
Phone	-12.1643
Rewrite	-12.1643
broadcast	-12.1643
envelope	-12.1644
Manage	-12.1644
manifest	-12.1644
threshold	-12.1644
strategy	-12.1645
partial	-12.1645
rotation	-12.1645
will	-12.1646
jndi	-12.1649
Subtype	-12.1652
large	-12.1654
MILLISECOND	-12.1659
Choose	-12.1659
2000	-12.166
grp	-12.1662
HeaderNames	-12.1663
SipApplication	-12.1663
MANAGE	-12.1664
tracking	-12.1664
StoreResource	-12.1664
White	-12.1664
AVAILABLE	-12.1667
Assistant	-12.1668
Hole	-12.1668
Sphere	-12.1668
TENSOR	-12.1668
compensation	-12.1668
Pressed	-12.1668
purchase	-12.1668
Azkaban	-12.1668
BREAK	-12.1668
Collision	-12.1668
commerceShipping	-12.1668
earliest	-12.1668
Hessian	-12.1668
NANOSECONDS	-12.1668
Obtain	-12.1668
SmushingRule	-12.1668
magnitude	-12.1668
surrogate	-12.1668
themeResourceId	-12.1668
▁bRelationKnown	-12.1668
▁diameter	-12.1668
PATCH	-12.1668
▁watermark	-12.1668
Singular	-12.1668
SMALL	-12.1668
citygml	-12.1668
readableBytes	-12.1668
Citation	-12.1668
third	-12.1668
▁SecretKeySpec	-12.1668
▁why	-12.1668
COPY	-12.1668
▁cnfe	-12.1668
▁Tmdb	-12.1668
skew	-12.1668
▁'}'	-12.1668
AGENT	-12.1668
SpecialReview	-12.1668
supportedCiphers	-12.1668
▁'?'	-12.1668
VARCHAR	-12.1668
SizeInBytes	-12.1668
▁RectF	-12.1669
water	-12.1669
AlreadyExists	-12.1669
▁workbook	-12.167
Customizer	-12.167
==-1)	-12.167
Stopping	-12.1671
▁sipApplication	-12.1672
COMPAR	-12.1672
KEYWORD	-12.1672
Credit	-12.1673
GRAN	-12.1673
▁ServiceLoader	-12.1674
xxx	-12.1675
▁hmac	-12.1676
CmdLine	-12.1677
Comma	-12.1677
1900	-12.1678
renderer	-12.1678
containerId	-12.1678
AddressRel	-12.1679
Gray	-12.168
▁odd	-12.1685
▁needle	-12.1685
Detected	-12.1688
▁acquired	-12.1692
ENV	-12.1694
GONE	-12.1694
Spark	-12.1695
▁please	-12.1696
MINUTES	-12.1696
callable	-12.1696
DER	-12.1701
ScanResult	-12.1702
ecurityException	-12.1703
ToShow	-12.1705
EditLog	-12.1705
▁'<'	-12.1706
may	-12.1711
▁published	-12.1713
Grpc	-12.1714
SymbolTable	-12.1717
▁bbox	-12.1718
Marked	-12.1721
recover	-12.1721
Never	-12.1722
CHARS	-12.1723
binarySearch	-12.1725
postag	-12.1727
WorkerInfo	-12.1729
concatMap	-12.1729
▁renderContext	-12.1738
Requirements	-12.174
▁accepted	-12.174
pub	-12.1744
tsym	-12.1749
decoded	-12.1752
Recycl	-12.1753
OutputKey	-12.1759
▁'('	-12.1759
Chunked	-12.176
SimpleType	-12.1767
webApp	-12.1768
▁classWriter	-12.1772
blue	-12.1776
EAR	-12.1777
getQueryString	-12.1782
RING	-12.1782
toUri	-12.1786
REVIEW	-12.179
helm	-12.1791
getChronology	-12.1792
BackgroundColor	-12.1793
deregister	-12.1793
▁reported	-12.1795
Yes	-12.18
▁appro	-12.1803
▁dow	-12.1806
HttpSession	-12.1806
CheckResult	-12.1821
ransac	-12.1837
isSingle	-12.185
utomationAccount	-12.1851
Computer	-12.1858
UserAttributes	-12.1865
Warp	-12.1868
checkbox	-12.187
("0"	-12.1872
executeAsync	-12.1877
WEST	-12.1879
chargingStation	-12.1887
svc	-12.1893
isAbstract	-12.1905
writeUTF	-12.1912
isFolder	-12.1916
doOn	-12.192
closeConnection	-12.1925
▁cpOption	-12.1925
LatLng	-12.1929
stringTo	-12.1945
Each	-12.1955
IsNull	-12.196
repeat	-12.1965
MOR	-12.1965
resume	-12.1965
dialect	-12.1965
alignment	-12.1966
getOrCreate	-12.1967
maybe	-12.1967
through	-12.1971
team	-12.1971
114	-12.1971
Deliver	-12.1975
HEAD	-12.1978
telephony	-12.198
factoryAppBeans	-12.198
eclipse	-12.198
Bitfinex	-12.198
Kripton	-12.198
('\''	-12.198
CONDITION	-12.198
Coefficient	-12.198
INCREMENT	-12.198
KILL	-12.198
morph	-12.198
CLUSTER	-12.198
FORWARD	-12.198
Initializing	-12.198
Multiplier	-12.198
Mutex	-12.198
ProcessAdvice	-12.198
STOPPED	-12.198
reenPepperServer	-12.198
rustedAdvisor	-12.198
snippet	-12.198
synonym	-12.198
tunnel	-12.198
velocity	-12.198
▁aEasterSunday	-12.198
DIALOG	-12.198
tabbedPane	-12.198
▁sdkHeaders	-12.198
JSDocInfo	-12.198
middleware	-12.198
vaultName	-12.198
iteration	-12.198
▁tmdb	-12.198
During	-12.198
tmpDir	-12.198
ncy	-12.198
MTAS	-12.1981
STAGE	-12.1981
connector	-12.1981
Manual	-12.1981
▁BoxRequests	-12.1981
IEntityGroup	-12.1981
Subtract	-12.1981
XXX	-12.1981
Prime	-12.1981
LND	-12.1982
RUNTIME	-12.1982
Lowest	-12.1982
PopupMenu	-12.1982
▁PortalException	-12.1982
MsgPhrase	-12.1982
PROCESSING	-12.1983
getAndSet	-12.1983
overwrite	-12.1983
ZWave	-12.1983
▁Sftp	-12.1983
▁IntTuple	-12.1984
Dsl	-12.1984
crud	-12.1984
▁skipping	-12.1985
DETAILS	-12.1986
MotionEvent	-12.1987
▁errMsg	-12.1987
▁"|"	-12.1988
RequestHeaders	-12.1991
▁SISession	-12.1991
▁zos	-12.1991
▁outbound	-12.1995
▁acceptor	-12.1996
Subspace	-12.1996
stopwatch	-12.1996
actualValue	-12.1997
CertificateOrder	-12.2
▁insn	-12.2
▁TypeInformation	-12.2001
DatePicker	-12.2002
getContentLength	-12.2002
getRequestURI	-12.2002
MemorySegment	-12.2005
▁JButton	-12.2008
▁prefixes	-12.2011
▁JLabel	-12.2011
GSS	-12.2012
wipe	-12.2012
▁ObjectAnimator	-12.2015
BlockMeta	-12.2018
160	-12.2019
HOURS	-12.2019
▁linear	-12.2022
CMP	-12.2024
easonPhrase	-12.2026
dInstanceState	-12.2027
CPDefinitionLink	-12.2028
undeploy	-12.2028
CryptoKey	-12.2028
tworkWatcherName	-12.2028
CmsContextMenu	-12.2033
Four	-12.2035
Conv	-12.2036
isStarted	-12.2037
Located	-12.2048
Zk	-12.2058
pdf	-12.206
IDLE	-12.2071
privateKey	-12.2072
LocalService	-12.2072
attributeValues	-12.2074
Cql	-12.2077
▁10000	-12.209
setAlignment	-12.2091
JsonElement	-12.2097
isLetter	-12.2108
OutputDir	-12.2108
▁opening	-12.2114
▁threadContext	-12.2116
inputShape	-12.2119
▁publisher	-12.212
Scaled	-12.2123
▁tbl	-12.2129
TimeOut	-12.2131
Fit	-12.2154
Opening	-12.2161
sslConfig	-12.2162
WindowState	-12.2166
ENC	-12.2179
InputHandler	-12.2185
align	-12.2188
NotExist	-12.2189
SuperType	-12.2194
RowKey	-12.2196
Fat	-12.2202
Degree	-12.2212
DeviceDefinition	-12.2221
CLI	-12.2228
setOwner	-12.2229
XPathContext	-12.2235
JE	-12.2255
▁preserve	-12.2259
-16	-12.2261
bytesTo	-12.2263
kvs	-12.2267
portletWindowId	-12.2271
▁reach	-12.2273
EXC	-12.228
MatchResult	-12.2282
navigation	-12.2285
Zoo	-12.2287
decrease	-12.2289
▁largest	-12.229
Drive	-12.2292
NamespaceContext	-12.2292
Interrupt	-12.2293
RLP	-12.2295
▁reserve	-12.2296
Walk	-12.2297
Thin	-12.2299
heartbeat	-12.2299
blank	-12.2299
Jinx	-12.2299
series	-12.2299
handshake	-12.23
observation	-12.23
Amazon	-12.23
populate	-12.2301
disk	-12.2301
specified	-12.2302
Monetary	-12.2303
Discrete	-12.2303
Characteristic	-12.2303
abbrev	-12.2303
PERIOD	-12.2303
Parcelable	-12.2303
STRATEGY	-12.2303
WaterMark	-12.2303
natural	-12.2303
Approval	-12.2303
Arbitra	-12.2303
CONTINUE	-12.2303
Corrupt	-12.2303
Gravity	-12.2303
Leave	-12.2303
RADIUS	-12.2303
Tunnel	-12.2303
VpnGateway	-12.2303
calculator	-12.2303
deleteOnExit	-12.2303
jenkins	-12.2303
CloudSpanner	-12.2303
Gobblin	-12.2303
Symmetry	-12.2303
▁updating	-12.2303
FunctionalTerm	-12.2303
▁chosen	-12.2303
▁verification	-12.2303
Forecast	-12.2303
rewind	-12.2303
▁ndFl	-12.2303
TRACK	-12.2303
▁BiConsumer	-12.2303
Beginning	-12.2303
decorate	-12.2303
-2$	-12.2303
CQL	-12.2303
SPLIT	-12.2303
identityHashCode	-12.2303
▁volatile	-12.2303
Authorizer	-12.2303
yaml	-12.2303
▁TTIOException	-12.2303
Authorities	-12.2303
Spider	-12.2303
Cfg	-12.2303
▁ImageGray	-12.2303
▁JAXBContext	-12.2303
BackupVault	-12.2303
bigDecimal	-12.2304
antlr	-12.2304
Swing	-12.2304
Intersection	-12.2304
FORMATTER	-12.2305
Both	-12.2305
unwrap	-12.2305
▁thus	-12.2305
injector	-12.2306
▁rslt	-12.2306
Successfully	-12.2307
Polyline	-12.2307
ScheduledFuture	-12.2307
Fact	-12.2308
Notifier	-12.2308
▁"@"	-12.2308
▁ImageIO	-12.2308
FullyQualified	-12.2308
Traverser	-12.2309
evaluationTime	-12.2309
backend	-12.2309
(')')	-12.2309
SELECTED	-12.2309
pfl	-12.231
▁IoUtil	-12.231
RateLimit	-12.231
BUF	-12.2313
executorService	-12.2313
deny	-12.2314
Terminated	-12.2314
▁logged	-12.2316
signum	-12.2318
DataStoreFactory	-12.2318
xslt	-12.2318
websocket	-12.232
INTER	-12.2321
AnnotatedElement	-12.2321
FleetRequest	-12.2323
MultiPolygon	-12.2324
connected	-12.2324
▁persisted	-12.2325
Trusted	-12.2326
ControlAdapter	-12.2326
Aligned	-12.2326
▁';'	-12.2329
▁past	-12.2331
▁tier	-12.2335
FontMetrics	-12.2336
NumericValue	-12.2351
▁JinxException	-12.2358
whereClause	-12.2363
▁iae	-12.2365
IReaction	-12.2367
room	-12.2369
AvailabilityZone	-12.2371
"},	-12.2371
▁branchName	-12.2373
!=0)	-12.2374
pageSize	-12.2374
Href	-12.238
ParseError	-12.2381
HttpHeader	-12.2389
▁pem	-12.2395
▁seem	-12.2396
SegmentEntryRel	-12.2402
▁stp	-12.2402
ung	-12.2403
unavailable	-12.2409
▁initializer	-12.2409
LocalTransaction	-12.2415
setter	-12.2418
▁polling	-12.2422
stdout	-12.2426
▁invoked	-12.2436
EndpointGroup	-12.2443
hbase	-12.2444
aking	-12.2446
rial	-12.245
registerMetric	-12.245
getEnclosing	-12.2463
inodes	-12.2465
fullyQualified	-12.2466
ically	-12.2483
NetworkEndpoint	-12.2488
FileAppender	-12.2488
NOTE	-12.2495
compact	-12.2495
ProxyInstance	-12.2501
CPOption	-12.2501
VersionRange	-12.2505
nextProp	-12.2505
Cancelled	-12.2513
SuperColumn	-12.2515
GeneralS	-12.2518
▁Completable	-12.2538
▁die	-12.2547
▁parm	-12.2547
▁skin	-12.2547
topo	-12.2555
Mirror	-12.2556
WAR	-12.257
▁OtpErlang	-12.2581
▁generat	-12.2584
currentPos	-12.2585
corner	-12.2585
Preserve	-12.2588
observe	-12.259
▁quota	-12.2605
▁Bson	-12.2605
Addition	-12.2608
erator	-12.2608
▁unread	-12.2611
Jndi	-12.2612
appDef	-12.2621
Imported	-12.2625
Declare	-12.2625
Train	-12.2627
isLast	-12.2628
Pick	-12.2631
degree	-12.2633
interfaceName	-12.2636
succeed	-12.2636
201805.	-12.2636
Volatile	-12.2636
EMAIL	-12.2636
HISTORY	-12.2636
Middleware	-12.2636
Probabilities	-12.2636
SHUTDOWN	-12.2636
SUMMARY	-12.2636
Composition	-12.2636
Deterministic	-12.2636
Development	-12.2636
Dummy	-12.2636
FAMILY	-12.2636
FORBIDDEN	-12.2636
Fedora	-12.2636
GENERAL	-12.2636
Glyph	-12.2636
HIDDEN	-12.2636
Hydrogen	-12.2636
Intermediate	-12.2636
Libraries	-12.2636
POJO	-12.2636
Piece	-12.2636
Pseudo	-12.2636
RESERVED	-12.2636
SERIAL	-12.2636
SONAR	-12.2636
broken	-12.2636
geometries	-12.2636
▁Therefore	-12.2636
▁epsilon	-12.2636
Conformance	-12.2636
Migrate	-12.2636
Rolling	-12.2636
▁Citrus	-12.2636
FNLP	-12.2636
NORTH	-12.2636
Picture	-12.2636
Recurrence	-12.2636
SCHEDULE	-12.2636
applicable	-12.2636
exponent	-12.2636
▁debugging	-12.2636
Dash	-12.2636
Infinispan	-12.2636
Unauthorized	-12.2636
retention	-12.2636
FREE	-12.2636
PAYLOAD	-12.2636
TRANSFORM	-12.2636
awaitTermination	-12.2636
▁persistenceUnit	-12.2636
vlan	-12.2637
protocolDataUnit	-12.2637
percentage	-12.2637
setConstraintMin	-12.2637
VoiceConnector	-12.2637
Spinner	-12.2637
PollingStrategy	-12.2637
ptAln	-12.2637
measurement	-12.2637
XSD	-12.2638
Slop	-12.2638
▁SortedMap	-12.2638
blacklist	-12.264
ChangedListener	-12.264
Overview	-12.264
NonZero	-12.264
▁TAGS	-12.2641
Shortcut	-12.2641
smart	-12.2642
minimize	-12.2642
Recursively	-12.2642
lazy	-12.2643
CurrencyPair	-12.2644
containing	-12.2644
transpose	-12.2644
CreateOrUpdate	-12.2644
Expecting	-12.2644
related	-12.2644
JawrConfig	-12.2646
replica	-12.2646
SerializedSize	-12.2646
fillRect	-12.2646
gson	-12.2647
JCExpression	-12.2647
ElemTemplate	-12.2648
Translated	-12.2648
summary	-12.2649
Halt	-12.265
TypedValue	-12.265
some	-12.2651
Allocated	-12.2651
PlaybackState	-12.2651
upperBound	-12.2651
getResponseCode	-12.2652
▁insertion	-12.2652
fac	-12.2655
nonNull	-12.2655
[...]
